{
  "version": "1.0",
  "truncation": null,
  "padding": null,
  "added_tokens": [
    {
      "id": 0,
      "content": "<pad>",
      "single_word": false,
      "lstrip": false,
      "rstrip": false,
      "normalized": false,
      "special": true
    },
    {
      "id": 1,
      "content": "<unk>",
      "single_word": false,
      "lstrip": false,
      "rstrip": false,
      "normalized": false,
      "special": true
    },
    {
      "id": 2,
      "content": "<s>",
      "single_word": false,
      "lstrip": false,
      "rstrip": false,
      "normalized": false,
      "special": true
    },
    {
      "id": 3,
      "content": "</s>",
      "single_word": false,
      "lstrip": false,
      "rstrip": false,
      "normalized": false,
      "special": true
    }
  ],
  "normalizer": {
    "type": "Sequence",
    "normalizers": [
      {
        "type": "NFD"
      },
      {
        "type": "Lowercase"
      },
      {
        "type": "StripAccents"
      }
    ]
  },
  "pre_tokenizer": {
    "type": "Whitespace"
  },
  "post_processor": null,
  "decoder": null,
  "model": {
    "type": "BPE",
    "dropout": null,
    "unk_token": "<unk>",
    "continuing_subword_prefix": null,
    "end_of_word_suffix": null,
    "fuse_unk": false,
    "byte_fallback": false,
    "ignore_merges": false,
    "vocab": {
      "<pad>": 0,
      "<unk>": 1,
      "<s>": 2,
      "</s>": 3,
      "!": 4,
      "#": 5,
      "&": 6,
      "'": 7,
      "(": 8,
      ")": 9,
      "*": 10,
      "+": 11,
      ",": 12,
      "-": 13,
      ".": 14,
      "/": 15,
      "0": 16,
      "1": 17,
      "2": 18,
      "3": 19,
      "4": 20,
      "5": 21,
      "6": 22,
      "7": 23,
      "8": 24,
      "9": 25,
      ":": 26,
      ";": 27,
      "?": 28,
      "[": 29,
      "]": 30,
      "_": 31,
      "`": 32,
      "a": 33,
      "b": 34,
      "c": 35,
      "d": 36,
      "e": 37,
      "f": 38,
      "g": 39,
      "h": 40,
      "i": 41,
      "j": 42,
      "k": 43,
      "l": 44,
      "m": 45,
      "n": 46,
      "o": 47,
      "p": 48,
      "q": 49,
      "r": 50,
      "s": 51,
      "t": 52,
      "u": 53,
      "v": 54,
      "w": 55,
      "x": 56,
      "y": 57,
      "z": 58,
      "æ": 59,
      "œ": 60,
      "—": 61,
      "‘": 62,
      "’": 63,
      "“": 64,
      "”": 65,
      "…": 66,
      "─": 67,
      "└": 68,
      "├": 69,
      "th": 70,
      "an": 71,
      "er": 72,
      "ou": 73,
      "in": 74,
      "the": 75,
      "or": 76,
      "en": 77,
      "is": 78,
      "ar": 79,
      "on": 80,
      "and": 81,
      "es": 82,
      "at": 83,
      "ll": 84,
      "to": 85,
      "st": 86,
      "you": 87,
      "me": 88,
      "no": 89,
      "of": 90,
      "ha": 91,
      "se": 92,
      "it": 93,
      "he": 94,
      "le": 95,
      "re": 96,
      "ing": 97,
      "be": 98,
      "wh": 99,
      "wi": 100,
      "ve": 101,
      "as": 102,
      "ch": 103,
      "ro": 104,
      "for": 105,
      "ce": 106,
      "my": 107,
      "ed": 108,
      "that": 109,
      "ir": 110,
      "ay": 111,
      "us": 112,
      "li": 113,
      "ld": 114,
      "we": 115,
      "ere": 116,
      "ent": 117,
      "al": 118,
      "ut": 119,
      "not": 120,
      "lo": 121,
      "de": 122,
      "gh": 123,
      "with": 124,
      "so": 125,
      "ke": 126,
      "do": 127,
      "ri": 128,
      "im": 129,
      "co": 130,
      "go": 131,
      "un": 132,
      "our": 133,
      "thou": 134,
      "ma": 135,
      "your": 136,
      "his": 137,
      "ra": 138,
      "ho": 139,
      "this": 140,
      "la": 141,
      "all": 142,
      "but": 143,
      "ght": 144,
      "et": 145,
      "ess": 146,
      "ther": 147,
      "ly": 148,
      "ur": 149,
      "have": 150,
      "est": 151,
      "him": 152,
      "ver": 153,
      "her": 154,
      "will": 155,
      "am": 156,
      "od": 157,
      "ord": 158,
      "id": 159,
      "now": 160,
      "ck": 161,
      "sha": 162,
      "ti": 163,
      "pe": 164,
      "fe": 165,
      "are": 166,
      "man": 167,
      "ould": 168,
      "what": 169,
      "ge": 170,
      "ad": 171,
      "ne": 172,
      "fa": 173,
      "thy": 174,
      "su": 175,
      "one": 176,
      "ard": 177,
      "po": 178,
      "by": 179,
      "if": 180,
      "pr": 181,
      "ta": 182,
      "end": 183,
      "ter": 184,
      "king": 185,
      "con": 186,
      "shall": 187,
      "tr": 188,
      "qu": 189,
      "ant": 190,
      "ca": 191,
      "art": 192,
      "let": 193,
      "sh": 194,
      "lord": 195,
      "mor": 196,
      "ex": 197,
      "si": 198,
      "up": 199,
      "thee": 200,
      "ine": 201,
      "mo": 202,
      "bo": 203,
      "rom": 204,
      "she": 205,
      "wn": 206,
      "whi": 207,
      "vi": 208,
      "oun": 209,
      "com": 210,
      "ain": 211,
      "come": 212,
      "there": 213,
      "good": 214,
      "sir": 215,
      "ion": 216,
      "te": 217,
      "how": 218,
      "per": 219,
      "mu": 220,
      "well": 221,
      "ct": 222,
      "ind": 223,
      "from": 224,
      "sel": 225,
      "out": 226,
      "ight": 227,
      "who": 228,
      "they": 229,
      "love": 230,
      "ous": 231,
      "sc": 232,
      "sa": 233,
      "was": 234,
      "then": 235,
      "io": 236,
      "enter": 237,
      "ven": 238,
      "more": 239,
      "can": 240,
      "here": 241,
      "wor": 242,
      "ble": 243,
      "would": 244,
      "fo": 245,
      "than": 246,
      "ong": 247,
      "mar": 248,
      "which": 249,
      "ue": 250,
      "wo": 251,
      "ry": 252,
      "know": 253,
      "pro": 254,
      "ag": 255,
      "um": 256,
      "il": 257,
      "see": 258,
      "their": 259,
      "ill": 260,
      "when": 261,
      "them": 262,
      "like": 263,
      "gi": 264,
      "ers": 265,
      "ep": 266,
      "ate": 267,
      "say": 268,
      "ul": 269,
      "ie": 270,
      "ak": 271,
      "self": 272,
      "ence": 273,
      "ow": 274,
      "ene": 275,
      "spe": 276,
      "du": 277,
      "where": 278,
      "hath": 279,
      "men": 280,
      "_ex": 281,
      "gre": 282,
      "did": 283,
      "may": 284,
      "fore": 285,
      "ok": 286,
      "dis": 287,
      "ance": 288,
      "pa": 289,
      "upon": 290,
      "some": 291,
      "ure": 292,
      "ves": 293,
      "ink": 294,
      "af": 295,
      "were": 296,
      "yet": 297,
      "should": 298,
      "thing": 299,
      "br": 300,
      "way": 301,
      "ath": 302,
      "make": 303,
      "ple": 304,
      "ound": 305,
      "ber": 306,
      "tis": 307,
      "sp": 308,
      "di": 309,
      "must": 310,
      "ish": 311,
      "ba": 312,
      "had": 313,
      "ci": 314,
      "other": 315,
      "fi": 316,
      "der": 317,
      "scene": 318,
      "use": 319,
      "ol": 320,
      "nor": 321,
      "fir": 322,
      "row": 323,
      "these": 324,
      "ser": 325,
      "why": 326,
      "very": 327,
      "ars": 328,
      "gl": 329,
      "unt": 330,
      "hon": 331,
      "such": 332,
      "des": 333,
      "mis": 334,
      "give": 335,
      "fri": 336,
      "ity": 337,
      "swe": 338,
      "gent": 339,
      "ye": 340,
      "lu": 341,
      "dy": 342,
      "again": 343,
      "most": 344,
      "ster": 345,
      "ap": 346,
      "bro": 347,
      "too": 348,
      "word": 349,
      "take": 350,
      "gra": 351,
      "ince": 352,
      "str": 353,
      "think": 354,
      "speak": 355,
      "heart": 356,
      "hand": 357,
      "first": 358,
      "hi": 359,
      "god": 360,
      "day": 361,
      "blo": 362,
      "wer": 363,
      "time": 364,
      "mon": 365,
      "na": 366,
      "jo": 367,
      "ans": 368,
      "ju": 369,
      "gentle": 370,
      "les": 371,
      "em": 372,
      "mine": 373,
      "ward": 374,
      "look": 375,
      "tell": 376,
      "bre": 377,
      "ius": 378,
      "au": 379,
      "son": 380,
      "ang": 381,
      "urn": 382,
      "ness": 383,
      "ise": 384,
      "que": 385,
      "hea": 386,
      "any": 387,
      "great": 388,
      "ty": 389,
      "fair": 390,
      "coun": 391,
      "el": 392,
      "ii": 393,
      "duke": 394,
      "war": 395,
      "father": 396,
      "mer": 397,
      "ach": 398,
      "night": 399,
      "llow": 400,
      "ab": 401,
      "friend": 402,
      "fr": 403,
      "less": 404,
      "never": 405,
      "ful": 406,
      "hear": 407,
      "rich": 408,
      "off": 409,
      "ort": 410,
      "tion": 411,
      "hast": 412,
      "queen": 413,
      "pla": 414,
      "much": 415,
      "ac": 416,
      "ite": 417,
      "ham": 418,
      "eunt": 419,
      "op": 420,
      "part": 421,
      "doth": 422,
      "ation": 423,
      "ment": 424,
      "land": 425,
      "yes": 426,
      "lady": 427,
      "bet": 428,
      "honour": 429,
      "wr": 430,
      "lt": 431,
      "fal": 432,
      "ave": 433,
      "death": 434,
      "sweet": 435,
      "_exeunt": 436,
      "blood": 437,
      "lay": 438,
      "stand": 439,
      "call": 440,
      "par": 441,
      "_exit": 442,
      "ret": 443,
      "ass": 444,
      "before": 445,
      "lie": 446,
      "pray": 447,
      "mad": 448,
      "gu": 449,
      "ic": 450,
      "life": 451,
      "age": 452,
      "arm": 453,
      "clo": 454,
      "ear": 455,
      "tain": 456,
      "gn": 457,
      "read": 458,
      "master": 459,
      "heaven": 460,
      "ast": 461,
      "pri": 462,
      "tle": 463,
      "own": 464,
      "tra": 465,
      "ia": 466,
      "red": 467,
      "cour": 468,
      "away": 469,
      "made": 470,
      "anton": 471,
      "orn": 472,
      "oul": 473,
      "hold": 474,
      "gr": 475,
      "fear": 476,
      "tru": 477,
      "fort": 478,
      "ace": 479,
      "ough": 480,
      "om": 481,
      "true": 482,
      "bu": 483,
      "che": 484,
      "ros": 485,
      "ree": 486,
      "ving": 487,
      "ange": 488,
      "set": 489,
      "prince": 490,
      "tend": 491,
      "ose": 492,
      "gar": 493,
      "thus": 494,
      "ouse": 495,
      "cle": 496,
      "new": 497,
      "long": 498,
      "pp": 499,
      "ick": 500,
      "ies": 501,
      "vo": 502,
      "tress": 503,
      "cannot": 504,
      "cy": 505,
      "old": 506,
      "ru": 507,
      "eyes": 508,
      "tri": 509,
      "head": 510,
      "bra": 511,
      "done": 512,
      "two": 513,
      "ever": 514,
      "richard": 515,
      "ice": 516,
      "sed": 517,
      "bar": 518,
      "ts": 519,
      "bear": 520,
      "pres": 521,
      "though": 522,
      "tim": 523,
      "live": 524,
      "put": 525,
      "mistress": 526,
      "bl": 527,
      "pet": 528,
      "rown": 529,
      "pre": 530,
      "ull": 531,
      "lia": 532,
      "world": 533,
      "house": 534,
      "ian": 535,
      "hel": 536,
      "ester": 537,
      "might": 538,
      "brother": 539,
      "tal": 540,
      "being": 541,
      "deed": 542,
      "ten": 543,
      "thought": 544,
      "fool": 545,
      "been": 546,
      "led": 547,
      "ces": 548,
      "name": 549,
      "ted": 550,
      "comes": 551,
      "cas": 552,
      "kes": 553,
      "down": 554,
      "ph": 555,
      "ings": 556,
      "cond": 557,
      "poor": 558,
      "hen": 559,
      "grace": 560,
      "light": 561,
      "aff": 562,
      "till": 563,
      "could": 564,
      "noble": 565,
      "rome": 566,
      "tro": 567,
      "leave": 568,
      "show": 569,
      "both": 570,
      "aught": 571,
      "wit": 572,
      "eng": 573,
      ".]": 574,
      "whose": 575,
      "ins": 576,
      "ford": 577,
      "under": 578,
      "fl": 579,
      "bes": 580,
      "into": 581,
      "hor": 582,
      "pos": 583,
      "nothing": 584,
      "pur": 585,
      "henry": 586,
      "cor": 587,
      "pt": 588,
      "even": 589,
      "ase": 590,
      "atch": 591,
      "ide": 592,
      "atter": 593,
      "wel": 594,
      "still": 595,
      "dr": 596,
      "pal": 597,
      "cap": 598,
      "cla": 599,
      "dead": 600,
      "better": 601,
      "able": 602,
      "je": 603,
      "ks": 604,
      "therefore": 605,
      "find": 606,
      "staff": 607,
      "serv": 608,
      "char": 609,
      "dear": 610,
      "second": 611,
      "comm": 612,
      "cur": 613,
      "keep": 614,
      "ild": 615,
      "tent": 616,
      "beg": 617,
      "daught": 618,
      "reas": 619,
      "right": 620,
      "shi": 621,
      "full": 622,
      "another": 623,
      "lit": 624,
      "many": 625,
      "every": 626,
      "act": 627,
      "nat": 628,
      "ps": 629,
      "soul": 630,
      "against": 631,
      "cr": 632,
      "rie": 633,
      "nay": 634,
      "caes": 635,
      "those": 636,
      "caesar": 637,
      "cl": 638,
      "falstaff": 639,
      "gentleman": 640,
      "youn": 641,
      "myself": 642,
      "fall": 643,
      "ction": 644,
      "dra": 645,
      "vir": 646,
      "young": 647,
      "ved": 648,
      "comp": 649,
      "den": 650,
      "ith": 651,
      "follow": 652,
      "after": 653,
      "place": 654,
      "lan": 655,
      "cester": 656,
      "ft": 657,
      "wife": 658,
      "gen": 659,
      "kind": 660,
      "peace": 661,
      "boy": 662,
      "bus": 663,
      "rest": 664,
      "ond": 665,
      "ctor": 666,
      "fortun": 667,
      "servant": 668,
      "cause": 669,
      "sold": 670,
      "daughter": 671,
      "bed": 672,
      "res": 673,
      "ban": 674,
      "woman": 675,
      "high": 676,
      "bid": 677,
      "cer": 678,
      "ield": 679,
      "sen": 680,
      "tong": 681,
      "sto": 682,
      "bur": 683,
      "eye": 684,
      "sand": 685,
      "face": 686,
      "stay": 687,
      "sor": 688,
      "yor": 689,
      "reason": 690,
      "die": 691,
      "pat": 692,
      "antony": 693,
      "play": 694,
      "ours": 695,
      "cre": 696,
      "just": 697,
      "fer": 698,
      "little": 699,
      "sle": 700,
      "madam": 701,
      "fare": 702,
      "ier": 703,
      "wick": 704,
      "words": 705,
      "med": 706,
      "best": 707,
      "ste": 708,
      "kill": 709,
      "suf": 710,
      "hn": 711,
      "none": 712,
      "bring": 713,
      "john": 714,
      "glou": 715,
      "gloucester": 716,
      "ench": 717,
      "york": 718,
      "its": 719,
      "ire": 720,
      "within": 721,
      "wa": 722,
      "engl": 723,
      "cei": 724,
      "vill": 725,
      "sent": 726,
      "ja": 727,
      "val": 728,
      "ought": 729,
      "mess": 730,
      "thine": 731,
      "oud": 732,
      "faith": 733,
      "friends": 734,
      "ison": 735,
      "ither": 736,
      "turn": 737,
      "get": 738,
      "thr": 739,
      "utus": 740,
      "gone": 741,
      "mother": 742,
      "ors": 743,
      "himself": 744,
      "car": 745,
      "ign": 746,
      "lords": 747,
      "ship": 748,
      "room": 749,
      "vil": 750,
      "brutus": 751,
      "tem": 752,
      "ses": 753,
      "sure": 754,
      "mind": 755,
      "since": 756,
      "cassi": 757,
      "tit": 758,
      "unto": 759,
      "present": 760,
      "aside": 761,
      "has": 762,
      "dou": 763,
      "spir": 764,
      "forth": 765,
      "iz": 766,
      "ning": 767,
      "lear": 768,
      "sil": 769,
      "band": 770,
      "answer": 771,
      "har": 772,
      "hamlet": 773,
      "grie": 774,
      "ms": 775,
      "once": 776,
      ".—": 777,
      "page": 778,
      "int": 779,
      "cho": 780,
      "whom": 781,
      "cess": 782,
      "mean": 783,
      "iness": 784,
      "else": 785,
      "tongue": 786,
      "low": 787,
      "uty": 788,
      "ken": 789,
      "ot": 790,
      "stri": 791,
      "fellow": 792,
      "mem": 793,
      "bla": 794,
      "dost": 795,
      "indeed": 796,
      "attend": 797,
      "conf": 798,
      "hus": 799,
      "llo": 800,
      "law": 801,
      "back": 802,
      "cut": 803,
      "far": 804,
      "ouch": 805,
      "about": 806,
      "esty": 807,
      "try": 808,
      "same": 809,
      "child": 810,
      "bod": 811,
      "over": 812,
      "ud": 813,
      "ech": 814,
      "sla": 815,
      "please": 816,
      "three": 817,
      "ird": 818,
      "sing": 819,
      "pra": 820,
      "hence": 821,
      "warwick": 822,
      "ition": 823,
      "need": 824,
      "said": 825,
      "meet": 826,
      "mac": 827,
      "france": 828,
      "mur": 829,
      "sub": 830,
      "nature": 831,
      "win": 832,
      "pleas": 833,
      "court": 834,
      "beth": 835,
      "crown": 836,
      "came": 837,
      "hum": 838,
      "wrong": 839,
      "fol": 840,
      "fortune": 841,
      "anti": 842,
      "dow": 843,
      "cious": 844,
      "cus": 845,
      "hope": 846,
      "vice": 847,
      "bea": 848,
      "beat": 849,
      "earth": 850,
      "happ": 851,
      "min": 852,
      "without": 853,
      "cha": 854,
      "mus": 855,
      "heard": 856,
      "joy": 857,
      "sleep": 858,
      "makes": 859,
      "letter": 860,
      "por": 861,
      "hed": 862,
      "maid": 863,
      "leon": 864,
      "husband": 865,
      "matter": 866,
      "folk": 867,
      "ience": 868,
      "sit": 869,
      "near": 870,
      "edward": 871,
      "messeng": 872,
      "while": 873,
      "ister": 874,
      "offi": 875,
      "marry": 876,
      "welcome": 877,
      "hang": 878,
      "hot": 879,
      "shame": 880,
      "power": 881,
      "vis": 882,
      "won": 883,
      "false": 884,
      "_aside": 885,
      "cal": 886,
      ",—": 887,
      "vy": 888,
      "ried": 889,
      "morrow": 890,
      "rosal": 891,
      "cuse": 892,
      "selves": 893,
      "help": 894,
      "virt": 895,
      "ling": 896,
      "port": 897,
      "home": 898,
      "bast": 899,
      "villain": 900,
      "hal": 901,
      "bell": 902,
      "lies": 903,
      "pose": 904,
      "farewell": 905,
      "sword": 906,
      "iii": 907,
      "ates": 908,
      "und": 909,
      "ner": 910,
      "va": 911,
      "anio": 912,
      "clown": 913,
      "cking": 914,
      "hour": 915,
      "bel": 916,
      "ga": 917,
      "thousand": 918,
      "sion": 919,
      "via": 920,
      "sound": 921,
      "cam": 922,
      "luci": 923,
      "vent": 924,
      "gue": 925,
      "state": 926,
      "anger": 927,
      "timon": 928,
      "wind": 929,
      "gods": 930,
      "truth": 931,
      "cit": 932,
      "gold": 933,
      "last": 934,
      "worth": 935,
      "thank": 936,
      "things": 937,
      "wear": 938,
      "xt": 939,
      "ore": 940,
      "iago": 941,
      "pain": 942,
      "sy": 943,
      "does": 944,
      "quick": 945,
      "ious": 946,
      "oft": 947,
      "dge": 948,
      "sun": 949,
      "murder": 950,
      "messenger": 951,
      "ped": 952,
      "ring": 953,
      "rew": 954,
      "pis": 955,
      "body": 956,
      "kis": 957,
      "cous": 958,
      "othe": 959,
      "cell": 960,
      "pard": 961,
      "youth": 962,
      "fight": 963,
      "sal": 964,
      "fect": 965,
      "arms": 966,
      "through": 967,
      "pardon": 968,
      "spo": 969,
      "content": 970,
      "break": 971,
      "only": 972,
      "bot": 973,
      "swear": 974,
      "pu": 975,
      "dar": 976,
      "rather": 977,
      "ants": 978,
      "hands": 979,
      "iv": 980,
      "enough": 981,
      "count": 982,
      "draw": 983,
      "wilt": 984,
      "othello": 985,
      "run": 986,
      "ught": 987,
      "quest": 988,
      "tears": 989,
      "yal": 990,
      "_to": 991,
      "got": 992,
      "tre": 993,
      "ina": 994,
      "pect": 995,
      "fire": 996,
      "cousin": 997,
      "pho": 998,
      "prin": 999,
      "honest": 1000,
      "fly": 1001,
      "news": 1002,
      "grief": 1003,
      "wish": 1004,
      "remem": 1005,
      "cks": 1006,
      "cent": 1007,
      "ff": 1008,
      "seen": 1009,
      "stra": 1010,
      "ask": 1011,
      "faul": 1012,
      "hither": 1013,
      "england": 1014,
      "cast": 1015,
      "mb": 1016,
      "ig": 1017,
      "country": 1018,
      "fit": 1019,
      "sim": 1020,
      "belie": 1021,
      "ides": 1022,
      "shalt": 1023,
      "send": 1024,
      "wall": 1025,
      "cra": 1026,
      "liver": 1027,
      "saw": 1028,
      "thum": 1029,
      "sea": 1030,
      "weep": 1031,
      "prote": 1032,
      "strong": 1033,
      "romeo": 1034,
      "sign": 1035,
      "mark": 1036,
      "prove": 1037,
      "doub": 1038,
      "cry": 1039,
      "fur": 1040,
      "host": 1041,
      "appe": 1042,
      "ather": 1043,
      "da": 1044,
      "prison": 1045,
      "half": 1046,
      "care": 1047,
      "oth": 1048,
      "ween": 1049,
      "ben": 1050,
      "command": 1051,
      "toge": 1052,
      "ged": 1053,
      "touch": 1054,
      "ready": 1055,
      "together": 1056,
      "devil": 1057,
      "seem": 1058,
      "speed": 1059,
      "ting": 1060,
      "ash": 1061,
      "dies": 1062,
      "bury": 1063,
      "ats": 1064,
      "maj": 1065,
      "return": 1066,
      "sorrow": 1067,
      "soldier": 1068,
      "cham": 1069,
      "went": 1070,
      ".”": 1071,
      "ob": 1072,
      "alth": 1073,
      "ned": 1074,
      "wal": 1075,
      "strange": 1076,
      "times": 1077,
      "palace": 1078,
      "beauty": 1079,
      "sur": 1080,
      "form": 1081,
      "yourself": 1082,
      "helen": 1083,
      "ject": 1084,
      "cli": 1085,
      "hard": 1086,
      "margar": 1087,
      "margaret": 1088,
      "hu": 1089,
      "late": 1090,
      "grow": 1091,
      "ory": 1092,
      "claud": 1093,
      "claudio": 1094,
      "bit": 1095,
      "field": 1096,
      "horse": 1097,
      "spirit": 1098,
      "lost": 1099,
      "gener": 1100,
      "kne": 1101,
      "broke": 1102,
      "stre": 1103,
      "macbeth": 1104,
      "each": 1105,
      "foul": 1106,
      "rant": 1107,
      "sin": 1108,
      "ief": 1109,
      "ross": 1110,
      "ton": 1111,
      "inius": 1112,
      "force": 1113,
      "worthy": 1114,
      "free": 1115,
      "sick": 1116,
      "izen": 1117,
      "citizen": 1118,
      "cu": 1119,
      "third": 1120,
      "pom": 1121,
      "cold": 1122,
      "deser": 1123,
      "wise": 1124,
      "means": 1125,
      "antonio": 1126,
      "sat": 1127,
      "dog": 1128,
      "eph": 1129,
      "rosalind": 1130,
      "ran": 1131,
      "ched": 1132,
      "atra": 1133,
      "opatra": 1134,
      "cleopatra": 1135,
      "vol": 1136,
      "between": 1137,
      "thoughts": 1138,
      "majesty": 1139,
      "pas": 1140,
      "shallow": 1141,
      "pen": 1142,
      "swor": 1143,
      "tes": 1144,
      "left": 1145,
      "breath": 1146,
      "don": 1147,
      "igh": 1148,
      "ute": 1149,
      "dre": 1150,
      "ist": 1151,
      "col": 1152,
      "yours": 1153,
      "lucius": 1154,
      "french": 1155,
      "desire": 1156,
      "justice": 1157,
      "emi": 1158,
      "bour": 1159,
      "pass": 1160,
      "wat": 1161,
      "tol": 1162,
      "proud": 1163,
      "sight": 1164,
      "pity": 1165,
      "ren": 1166,
      "reven": 1167,
      "imo": 1168,
      "talk": 1169,
      "ceive": 1170,
      "bor": 1171,
      "prom": 1172,
      "sad": 1173,
      "told": 1174,
      "bese": 1175,
      "found": 1176,
      "mi": 1177,
      "lead": 1178,
      "alone": 1179,
      "born": 1180,
      "sister": 1181,
      "van": 1182,
      "oney": 1183,
      "mal": 1184,
      "outh": 1185,
      "ilus": 1186,
      "trust": 1187,
      "bucking": 1188,
      "chamber": 1189,
      "watch": 1190,
      "foot": 1191,
      "says": 1192,
      "suffolk": 1193,
      "happy": 1194,
      "buckingham": 1195,
      "four": 1196,
      "lend": 1197,
      "itself": 1198,
      "royal": 1199,
      "entine": 1200,
      "comfort": 1201,
      "gave": 1202,
      "pand": 1203,
      "believe": 1204,
      "bat": 1205,
      "pl": 1206,
      "reat": 1207,
      "alas": 1208,
      "rice": 1209,
      "seek": 1210,
      "troilus": 1211,
      "cassio": 1212,
      "kna": 1213,
      "tomorrow": 1214,
      "business": 1215,
      "certain": 1216,
      "vers": 1217,
      "charge": 1218,
      "known": 1219,
      "knight": 1220,
      "cri": 1221,
      "nur": 1222,
      "air": 1223,
      "ls": 1224,
      "ush": 1225,
      "demon": 1226,
      "uncle": 1227,
      "common": 1228,
      "looks": 1229,
      "pi": 1230,
      "isa": 1231,
      "music": 1232,
      "gain": 1233,
      "ople": 1234,
      "ery": 1235,
      "dol": 1236,
      "main": 1237,
      "ary": 1238,
      "ceed": 1239,
      "dom": 1240,
      "people": 1241,
      "const": 1242,
      "plain": 1243,
      "titus": 1244,
      "emilia": 1245,
      "lad": 1246,
      "person": 1247,
      "haste": 1248,
      "course": 1249,
      "kiss": 1250,
      "bound": 1251,
      "wound": 1252,
      "ished": 1253,
      "sum": 1254,
      "press": 1255,
      "corio": 1256,
      "mil": 1257,
      "pleasure": 1258,
      "remember": 1259,
      "mir": 1260,
      "service": 1261,
      "gon": 1262,
      "thyself": 1263,
      "syra": 1264,
      "beseech": 1265,
      "hate": 1266,
      "bloody": 1267,
      "burn": 1268,
      "stu": 1269,
      "arus": 1270,
      "ato": 1271,
      "reg": 1272,
      "doubt": 1273,
      "iers": 1274,
      "oath": 1275,
      "soon": 1276,
      "bles": 1277,
      "ana": 1278,
      "lose": 1279,
      "fav": 1280,
      "work": 1281,
      "serve": 1282,
      "general": 1283,
      "itor": 1284,
      "lives": 1285,
      "ze": 1286,
      "loves": 1287,
      "save": 1288,
      "valentine": 1289,
      "black": 1290,
      "bastard": 1291,
      "open": 1292,
      "fet": 1293,
      "ny": 1294,
      "yield": 1295,
      "som": 1296,
      "desdemon": 1297,
      "gentlemen": 1298,
      "cassius": 1299,
      "cite": 1300,
      "dam": 1301,
      "dare": 1302,
      "ones": 1303,
      "thinks": 1304,
      "juli": 1305,
      "gall": 1306,
      "ures": 1307,
      "side": 1308,
      "lus": 1309,
      "purpose": 1310,
      "soldiers": 1311,
      "patience": 1312,
      "desdemona": 1313,
      "hop": 1314,
      "amon": 1315,
      "days": 1316,
      "company": 1317,
      "syracuse": 1318,
      "hector": 1319,
      "behold": 1320,
      "woo": 1321,
      "palamon": 1322,
      "ied": 1323,
      "ily": 1324,
      "change": 1325,
      "drom": 1326,
      "sper": 1327,
      "dromio": 1328,
      "abo": 1329,
      "danger": 1330,
      "knows": 1331,
      "nurse": 1332,
      "bri": 1333,
      "pay": 1334,
      "umpet": 1335,
      "non": 1336,
      "oc": 1337,
      "prosper": 1338,
      "brought": 1339,
      "grave": 1340,
      "cress": 1341,
      "proteus": 1342,
      "pompe": 1343,
      "dream": 1344,
      "cressid": 1345,
      "chio": 1346,
      "holy": 1347,
      "others": 1348,
      "angelo": 1349,
      "ruchio": 1350,
      "petruchio": 1351,
      "antipho": 1352,
      "quickly": 1353,
      "antipholus": 1354,
      "arch": 1355,
      "sake": 1356,
      "women": 1357,
      "given": 1358,
      "captain": 1359,
      "virtue": 1360,
      "dolph": 1361,
      "pompey": 1362,
      "arcite": 1363,
      "ument": 1364,
      "brave": 1365,
      "aint": 1366,
      "gracious": 1367,
      "dro": 1368,
      "ger": 1369,
      "vile": 1370,
      "woe": 1371,
      "guard": 1372,
      "bened": 1373,
      "chief": 1374,
      "prithee": 1375,
      "ground": 1376,
      "voli": 1377,
      "lanus": 1378,
      "coriolanus": 1379,
      "vere": 1380,
      "lic": 1381,
      "deep": 1382,
      "past": 1383,
      "luck": 1384,
      "ments": 1385,
      "writ": 1386,
      "further": 1387,
      "ale": 1388,
      "took": 1389,
      "chance": 1390,
      "volio": 1391,
      "ws": 1392,
      "ons": 1393,
      "tom": 1394,
      "neither": 1395,
      "bold": 1396,
      "bardolph": 1397,
      "juliet": 1398,
      "ek": 1399,
      "lock": 1400,
      ",”": 1401,
      "gs": 1402,
      "deliver": 1403,
      "ardin": 1404,
      "friar": 1405,
      "toby": 1406,
      "tius": 1407,
      "ions": 1408,
      "def": 1409,
      "suit": 1410,
      "want": 1411,
      "spur": 1412,
      "sworn": 1413,
      "eat": 1414,
      "mouth": 1415,
      "obe": 1416,
      "ris": 1417,
      "fast": 1418,
      "praise": 1419,
      "fection": 1420,
      "yea": 1421,
      "years": 1422,
      "mercy": 1423,
      "bless": 1424,
      "lar": 1425,
      "pret": 1426,
      "street": 1427,
      "benedick": 1428,
      "tia": 1429,
      "bass": 1430,
      "ior": 1431,
      "kent": 1432,
      "enius": 1433,
      "menenius": 1434,
      "ues": 1435,
      "anne": 1436,
      "because": 1437,
      "goes": 1438,
      "sue": 1439,
      "prof": 1440,
      "warrant": 1441,
      "drink": 1442,
      "money": 1443,
      "sk": 1444,
      "wis": 1445,
      "wed": 1446,
      "hell": 1447,
      "roman": 1448,
      "icles": 1449,
      "helena": 1450,
      "cost": 1451,
      "owne": 1452,
      "berowne": 1453,
      "ah": 1454,
      "kather": 1455,
      "lest": 1456,
      "vow": 1457,
      "whe": 1458,
      "report": 1459,
      "ated": 1460,
      "rel": 1461,
      "lips": 1462,
      "few": 1463,
      "portia": 1464,
      "leonato": 1465,
      "bella": 1466,
      "appear": 1467,
      "fla": 1468,
      "sovere": 1469,
      "base": 1470,
      "sovereign": 1471,
      "bian": 1472,
      "either": 1473,
      "point": 1474,
      "short": 1475,
      "ength": 1476,
      "tonight": 1477,
      "pher": 1478,
      "canst": 1479,
      "something": 1480,
      "pistol": 1481,
      "fault": 1482,
      "water": 1483,
      "pandarus": 1484,
      "met": 1485,
      "highness": 1486,
      "ient": 1487,
      "plo": 1488,
      "cover": 1489,
      "trumpet": 1490,
      "didst": 1491,
      "heavy": 1492,
      "tender": 1493,
      "clif": 1494,
      "din": 1495,
      "esus": 1496,
      "lly": 1497,
      "white": 1498,
      "dem": 1499,
      "sup": 1500,
      "judge": 1501,
      "weak": 1502,
      "ider": 1503,
      "ears": 1504,
      "sic": 1505,
      "pericles": 1506,
      "cord": 1507,
      "ised": 1508,
      "ket": 1509,
      "iece": 1510,
      "counter": 1511,
      "inter": 1512,
      "stru": 1513,
      "bas": 1514,
      "os": 1515,
      "phi": 1516,
      "throw": 1517,
      "toward": 1518,
      "los": 1519,
      "next": 1520,
      "coming": 1521,
      "thanks": 1522,
      "hearts": 1523,
      "english": 1524,
      "vali": 1525,
      "ephesus": 1526,
      "vin": 1527,
      "having": 1528,
      "feel": 1529,
      "themselves": 1530,
      "merry": 1531,
      "princess": 1532,
      "twent": 1533,
      "quar": 1534,
      "sport": 1535,
      "talbot": 1536,
      "centio": 1537,
      "corn": 1538,
      "hind": 1539,
      "ends": 1540,
      "moon": 1541,
      "gives": 1542,
      "cressida": 1543,
      "sho": 1544,
      "enemy": 1545,
      "subject": 1546,
      "twenty": 1547,
      "ev": 1548,
      "ges": 1549,
      "sons": 1550,
      "truly": 1551,
      "question": 1552,
      "flo": 1553,
      "knew": 1554,
      "safe": 1555,
      "guil": 1556,
      "confess": 1557,
      "llen": 1558,
      "worse": 1559,
      "illes": 1560,
      "claim": 1561,
      "straight": 1562,
      "lond": 1563,
      "twas": 1564,
      "west": 1565,
      "mortal": 1566,
      "loved": 1567,
      "pair": 1568,
      "clar": 1569,
      "wonder": 1570,
      "london": 1571,
      "ele": 1572,
      "hair": 1573,
      "almost": 1574,
      "speech": 1575,
      "theseus": 1576,
      "stands": 1577,
      "voice": 1578,
      "knave": 1579,
      "city": 1580,
      "oll": 1581,
      "soft": 1582,
      "stone": 1583,
      "scorn": 1584,
      "offer": 1585,
      "ils": 1586,
      "paroll": 1587,
      "castle": 1588,
      "revenge": 1589,
      "parolles": 1590,
      "cardin": 1591,
      "fles": 1592,
      "tin": 1593,
      "town": 1594,
      "livia": 1595,
      "qual": 1596,
      "fra": 1597,
      "pit": 1598,
      "ulet": 1599,
      "wast": 1600,
      "capulet": 1601,
      "strike": 1602,
      "olivia": 1603,
      "vel": 1604,
      "bow": 1605,
      "brea": 1606,
      "achilles": 1607,
      "cardinal": 1608,
      "fie": 1609,
      "orland": 1610,
      "unless": 1611,
      "march": 1612,
      "wol": 1613,
      "paris": 1614,
      "favour": 1615,
      "clarence": 1616,
      "orlando": 1617,
      "moun": 1618,
      "twi": 1619,
      "test": 1620,
      "wret": 1621,
      "sec": 1622,
      "ended": 1623,
      "qui": 1624,
      "imogen": 1625,
      "today": 1626,
      "note": 1627,
      "berland": 1628,
      "valiant": 1629,
      "athen": 1630,
      "ni": 1631,
      "lion": 1632,
      "door": 1633,
      "bert": 1634,
      "tar": 1635,
      "anc": 1636,
      "lius": 1637,
      "deme": 1638,
      "ways": 1639,
      "traitor": 1640,
      "suffer": 1641,
      "dark": 1642,
      "flow": 1643,
      "wd": 1644,
      "za": 1645,
      "eter": 1646,
      "mant": 1647,
      "luc": 1648,
      "trius": 1649,
      "demetrius": 1650,
      "glad": 1651,
      "une": 1652,
      "ladies": 1653,
      "excell": 1654,
      "northum": 1655,
      "northumberland": 1656,
      "pluck": 1657,
      "methinks": 1658,
      "sever": 1659,
      "coward": 1660,
      "rage": 1661,
      "martius": 1662,
      "pale": 1663,
      "earl": 1664,
      "spoke": 1665,
      "bad": 1666,
      "duty": 1667,
      "spr": 1668,
      "withal": 1669,
      "doctor": 1670,
      "ourish": 1671,
      "fell": 1672,
      "vio": 1673,
      "married": 1674,
      "!—": 1675,
      "bal": 1676,
      "cul": 1677,
      "cred": 1678,
      "mund": 1679,
      "inst": 1680,
      "vius": 1681,
      "scar": 1682,
      "grant": 1683,
      "senat": 1684,
      "hark": 1685,
      "hur": 1686,
      "eno": 1687,
      "edmund": 1688,
      "mock": 1689,
      "book": 1690,
      "action": 1691,
      "drum": 1692,
      "needs": 1693,
      "beatrice": 1694,
      "loss": 1695,
      "nest": 1696,
      "become": 1697,
      "heavens": 1698,
      "_aside_": 1699,
      "ape": 1700,
      "atio": 1701,
      "boling": 1702,
      "above": 1703,
      "bolingbroke": 1704,
      "hours": 1705,
      "tor": 1706,
      "stir": 1707,
      "lip": 1708,
      "entreat": 1709,
      "somer": 1710,
      "julia": 1711,
      "counsel": 1712,
      "horatio": 1713,
      "presently": 1714,
      "pedro": 1715,
      "isabella": 1716,
      "charm": 1717,
      "hood": 1718,
      "lau": 1719,
      "kings": 1720,
      "shepher": 1721,
      "lust": 1722,
      "flatter": 1723,
      "attendants": 1724,
      "walk": 1725,
      "passion": 1726,
      "enobar": 1727,
      "shepherd": 1728,
      "join": 1729,
      "enobarbus": 1730,
      "dden": 1731,
      "kno": 1732,
      "ano": 1733,
      "onius": 1734,
      "tage": 1735,
      "appro": 1736,
      "flesh": 1737,
      "rah": 1738,
      "ally": 1739,
      "dire": 1740,
      "mit": 1741,
      "rep": 1742,
      "riage": 1743,
      "move": 1744,
      "teach": 1745,
      "deny": 1746,
      "prospero": 1747,
      "!”": 1748,
      "ef": 1749,
      "fan": 1750,
      "already": 1751,
      "trou": 1752,
      "respect": 1753,
      "somerset": 1754,
      "eth": 1755,
      "fle": 1756,
      "fill": 1757,
      "morning": 1758,
      "sirrah": 1759,
      "hastings": 1760,
      "mod": 1761,
      "rey": 1762,
      "begin": 1763,
      "leontes": 1764,
      "rup": 1765,
      "isbury": 1766,
      "feed": 1767,
      "feast": 1768,
      "post": 1769,
      "sigh": 1770,
      "wood": 1771,
      "iel": 1772,
      "strength": 1773,
      "salisbury": 1774,
      "gro": 1775,
      "uous": 1776,
      "orge": 1777,
      "feit": 1778,
      "suc": 1779,
      "pol": 1780,
      "wherefore": 1781,
      "five": 1782,
      "flourish": 1783,
      "bly": 1784,
      "wild": 1785,
      "idius": 1786,
      "takes": 1787,
      "wherein": 1788,
      "breast": 1789,
      "liege": 1790,
      "battle": 1791,
      "hy": 1792,
      "ive": 1793,
      "star": 1794,
      "proceed": 1795,
      "tram": 1796,
      "bis": 1797,
      "heir": 1798,
      "rever": 1799,
      "rob": 1800,
      "died": 1801,
      "hide": 1802,
      "witness": 1803,
      "wake": 1804,
      "cup": 1805,
      "wars": 1806,
      "ensi": 1807,
      "often": 1808,
      "ley": 1809,
      "ala": 1810,
      "add": 1811,
      "cons": 1812,
      "provo": 1813,
      "slain": 1814,
      "viola": 1815,
      "bond": 1816,
      "eas": 1817,
      "beast": 1818,
      "tranio": 1819,
      "green": 1820,
      "speaks": 1821,
      "honourable": 1822,
      "sense": 1823,
      "spirits": 1824,
      "slave": 1825,
      "clifford": 1826,
      "brow": 1827,
      "dread": 1828,
      "fam": 1829,
      "stain": 1830,
      "widow": 1831,
      "ents": 1832,
      "order": 1833,
      "poison": 1834,
      "bosom": 1835,
      "marcus": 1836,
      "dull": 1837,
      "fully": 1838,
      "resol": 1839,
      "eks": 1840,
      "ker": 1841,
      "eness": 1842,
      "sooth": 1843,
      "mast": 1844,
      "among": 1845,
      "wouldst": 1846,
      "countess": 1847,
      "pretty": 1848,
      "sicinius": 1849,
      "wra": 1850,
      "anon": 1851,
      "sebast": 1852,
      "chur": 1853,
      "shadow": 1854,
      "sudden": 1855,
      "consc": 1856,
      "fres": 1857,
      "patient": 1858,
      "creat": 1859,
      "office": 1860,
      "murderer": 1861,
      "sebastian": 1862,
      "hort": 1863,
      "mia": 1864,
      "sma": 1865,
      "seems": 1866,
      "bertram": 1867,
      "cheer": 1868,
      "hostess": 1869,
      "gg": 1870,
      "jest": 1871,
      "edgar": 1872,
      "living": 1873,
      "labour": 1874,
      "poli": 1875,
      "commend": 1876,
      "children": 1877,
      "harm": 1878,
      "ost": 1879,
      "swi": 1880,
      "var": 1881,
      "lov": 1882,
      "loving": 1883,
      "acqu": 1884,
      "train": 1885,
      "witch": 1886,
      "temp": 1887,
      "signior": 1888,
      "lucio": 1889,
      "fat": 1890,
      "saint": 1891,
      "twere": 1892,
      "seas": 1893,
      "ires": 1894,
      "norfolk": 1895,
      "firm": 1896,
      "close": 1897,
      "mantus": 1898,
      "excellent": 1899,
      "apemantus": 1900,
      "fing": 1901,
      "horn": 1902,
      "mbel": 1903,
      "num": 1904,
      "held": 1905,
      "affection": 1906,
      "cian": 1907,
      "breed": 1908,
      "grat": 1909,
      "cymbel": 1910,
      "carry": 1911,
      "tempt": 1912,
      "fetch": 1913,
      "laugh": 1914,
      "hortensi": 1915,
      "cymbeline": 1916,
      "py": 1917,
      "meas": 1918,
      "behind": 1919,
      "liber": 1920,
      "hero": 1921,
      "caius": 1922,
      "lordship": 1923,
      "exe": 1924,
      "six": 1925,
      "whole": 1926,
      "els": 1927,
      "letters": 1928,
      "camp": 1929,
      "trem": 1930,
      "malvolio": 1931,
      "pare": 1932,
      "lack": 1933,
      "anything": 1934,
      "called": 1935,
      "brace": 1936,
      "conscience": 1937,
      "aja": 1938,
      "ds": 1939,
      "ew": 1940,
      "sess": 1941,
      "forest": 1942,
      "gover": 1943,
      "ets": 1944,
      "case": 1945,
      "marriage": 1946,
      "illo": 1947,
      "posthum": 1948,
      "hotspur": 1949,
      "pub": 1950,
      "ajax": 1951,
      "cen": 1952,
      "ptis": 1953,
      "ines": 1954,
      "arma": 1955,
      "conce": 1956,
      "baptis": 1957,
      "lucentio": 1958,
      "steal": 1959,
      "bassanio": 1960,
      "posthumus": 1961,
      "ding": 1962,
      "sey": 1963,
      "lea": 1964,
      "celia": 1965,
      "deri": 1966,
      "pride": 1967,
      "pped": 1968,
      "silvia": 1969,
      "fresh": 1970,
      "fash": 1971,
      "mid": 1972,
      "treason": 1973,
      "cept": 1974,
      "unk": 1975,
      "shar": 1976,
      "sible": 1977,
      "write": 1978,
      "heads": 1979,
      "deeds": 1980,
      "shows": 1981,
      "secret": 1982,
      "lst": 1983,
      "mour": 1984,
      "health": 1985,
      "recei": 1986,
      "tale": 1987,
      "whilst": 1988,
      "paper": 1989,
      "mighty": 1990,
      "harry": 1991,
      "camillo": 1992,
      "vantage": 1993,
      "execut": 1994,
      "bir": 1995,
      "eli": 1996,
      "hund": 1997,
      "tur": 1998,
      "ys": 1999,
      "reign": 2000,
      "rive": 2001,
      "thersit": 2002,
      "understand": 2003,
      "charles": 2004,
      "fortunes": 2005,
      "zabeth": 2006,
      "effect": 2007,
      "polonius": 2008,
      "bishop": 2009,
      "small": 2010,
      "armado": 2011,
      "baptista": 2012,
      "elizabeth": 2013,
      "hundred": 2014,
      "thersites": 2015,
      "dio": 2016,
      "wers": 2017,
      "oured": 2018,
      "george": 2019,
      "duch": 2020,
      "div": 2021,
      "used": 2022,
      "ations": 2023,
      "souls": 2024,
      "princes": 2025,
      "simple": 2026,
      "hortensio": 2027,
      "ron": 2028,
      "inf": 2029,
      "beard": 2030,
      "going": 2031,
      "offence": 2032,
      "parts": 2033,
      "longer": 2034,
      "satis": 2035,
      "mile": 2036,
      "phe": 2037,
      "ined": 2038,
      "bears": 2039,
      "alb": 2040,
      "sail": 2041,
      "brie": 2042,
      "dest": 2043,
      "drown": 2044,
      "mies": 2045,
      "tam": 2046,
      "ities": 2047,
      "chris": 2048,
      "forget": 2049,
      "neigh": 2050,
      "contin": 2051,
      "brit": 2052,
      "phy": 2053,
      "boys": 2054,
      "quiet": 2055,
      "duchess": 2056,
      "iam": 2057,
      "consent": 2058,
      "bawd": 2059,
      "emper": 2060,
      "choose": 2061,
      "bird": 2062,
      "dain": 2063,
      "fine": 2064,
      "gard": 2065,
      "gif": 2066,
      "piece": 2067,
      "andrew": 2068,
      "noise": 2069,
      "cher": 2070,
      "forward": 2071,
      "alar": 2072,
      "along": 2073,
      "besides": 2074,
      "learn": 2075,
      "silence": 2076,
      "costard": 2077,
      "bianca": 2078,
      "athens": 2079,
      "trouble": 2080,
      "fashion": 2081,
      "seal": 2082,
      "ourselves": 2083,
      "lafew": 2084,
      "quoth": 2085,
      "motion": 2086,
      "worship": 2087,
      "proof": 2088,
      "stern": 2089,
      "blow": 2090,
      "banqu": 2091,
      "promise": 2092,
      "lender": 2093,
      "lys": 2094,
      "william": 2095,
      "quite": 2096,
      "maria": 2097,
      "enemies": 2098,
      "blind": 2099,
      "troy": 2100,
      "provost": 2101,
      "round": 2102,
      "ulys": 2103,
      "issue": 2104,
      "lice": 2105,
      "cted": 2106,
      "serving": 2107,
      "possess": 2108,
      "jaqu": 2109,
      "valour": 2110,
      "blessed": 2111,
      "alex": 2112,
      "ulysses": 2113,
      "hin": 2114,
      "ras": 2115,
      "slender": 2116,
      "sole": 2117,
      "herself": 2118,
      "caster": 2119,
      "masters": 2120,
      ".’": 2121,
      "cti": 2122,
      "smo": 2123,
      "spa": 2124,
      "least": 2125,
      "kept": 2126,
      "shake": 2127,
      "officer": 2128,
      "gainst": 2129,
      "alarum": 2130,
      "sus": 2131,
      "shy": 2132,
      "duff": 2133,
      "cient": 2134,
      "year": 2135,
      "parti": 2136,
      "flor": 2137,
      "curse": 2138,
      "clus": 2139,
      "servants": 2140,
      "temper": 2141,
      "title": 2142,
      "birth": 2143,
      "mut": 2144,
      "ners": 2145,
      "rat": 2146,
      "song": 2147,
      "til": 2148,
      "posed": 2149,
      "worst": 2150,
      "cloten": 2151,
      "lancaster": 2152,
      "banish": 2153,
      "macduff": 2154,
      "katherina": 2155,
      "whether": 2156,
      "emperor": 2157,
      "bi": 2158,
      "cross": 2159,
      "gri": 2160,
      "sn": 2161,
      "ual": 2162,
      "forgot": 2163,
      "delight": 2164,
      "adv": 2165,
      "taken": 2166,
      "uphin": 2167,
      "grey": 2168,
      "presence": 2169,
      "fools": 2170,
      "stood": 2171,
      "virtuous": 2172,
      "dauphin": 2173,
      "dangerous": 2174,
      "shylock": 2175,
      "patch": 2176,
      "sw": 2177,
      "stor": 2178,
      "ghost": 2179,
      "kingdom": 2180,
      "prov": 2181,
      "troth": 2182,
      "crue": 2183,
      "cloud": 2184,
      "evans": 2185,
      "match": 2186,
      "yond": 2187,
      "ertes": 2188,
      "depart": 2189,
      "laid": 2190,
      "laertes": 2191,
      "adri": 2192,
      "tear": 2193,
      "entertain": 2194,
      "fold": 2195,
      "grand": 2196,
      "buy": 2197,
      "rust": 2198,
      "bottom": 2199,
      "gy": 2200,
      "ging": 2201,
      "kate": 2202,
      "uri": 2203,
      "vain": 2204,
      "sol": 2205,
      "ural": 2206,
      "manner": 2207,
      "supp": 2208,
      "angry": 2209,
      "blush": 2210,
      "foolish": 2211,
      "stop": 2212,
      "golden": 2213,
      "measure": 2214,
      "_they": 2215,
      "bright": 2216,
      "plan": 2217,
      "xen": 2218,
      "wealth": 2219,
      "deb": 2220,
      "adie": 2221,
      "view": 2222,
      "sander": 2223,
      "faults": 2224,
      "church": 2225,
      "cure": 2226,
      "eper": 2227,
      "fled": 2228,
      "gun": 2229,
      "lor": 2230,
      "wench": 2231,
      "yon": 2232,
      "esy": 2233,
      "roderi": 2234,
      "rain": 2235,
      "perceive": 2236,
      "regan": 2237,
      "breathe": 2238,
      "charmian": 2239,
      "roderigo": 2240,
      "hun": 2241,
      "pin": 2242,
      "lysander": 2243,
      "hermia": 2244,
      "cade": 2245,
      "percy": 2246,
      "marina": 2247,
      "iler": 2248,
      "hadst": 2249,
      "jeal": 2250,
      "colour": 2251,
      "hurt": 2252,
      "adieu": 2253,
      "ald": 2254,
      "bs": 2255,
      "gates": 2256,
      "sco": 2257,
      "army": 2258,
      "alo": 2259,
      "ender": 2260,
      "cominius": 2261,
      "thence": 2262,
      "aga": 2263,
      "glass": 2264,
      "grum": 2265,
      "position": 2266,
      "beggar": 2267,
      "pisanio": 2268,
      "quarrel": 2269,
      "kins": 2270,
      "pure": 2271,
      "rise": 2272,
      "scho": 2273,
      "rose": 2274,
      "reads": 2275,
      "brain": 2276,
      "ledge": 2277,
      "double": 2278,
      "memnon": 2279,
      "humour": 2280,
      "rosaline": 2281,
      "summer": 2282,
      "agamemnon": 2283,
      "due": 2284,
      "ile": 2285,
      "thor": 2286,
      "receive": 2287,
      "dev": 2288,
      "victor": 2289,
      "proper": 2290,
      "brook": 2291,
      "month": 2292,
      "jove": 2293,
      "auf": 2294,
      "opin": 2295,
      "calls": 2296,
      "possible": 2297,
      "natural": 2298,
      "weary": 2299,
      "bitter": 2300,
      "cruel": 2301,
      "bon": 2302,
      "fre": 2303,
      "lance": 2304,
      "pir": 2305,
      "sem": 2306,
      "maine": 2307,
      "willing": 2308,
      "shape": 2309,
      "moth": 2310,
      "boyet": 2311,
      "ounds": 2312,
      "greater": 2313,
      "prayers": 2314,
      "iano": 2315,
      "jewel": 2316,
      "banished": 2317,
      "obey": 2318,
      "wisdom": 2319,
      "scarce": 2320,
      "gratiano": 2321,
      "sharp": 2322,
      "school": 2323,
      "dle": 2324,
      "dance": 2325,
      "evil": 2326,
      "frown": 2327,
      "jur": 2328,
      "pite": 2329,
      "ens": 2330,
      "iron": 2331,
      "usur": 2332,
      "utter": 2333,
      "hol": 2334,
      "poins": 2335,
      "embrace": 2336,
      "cheek": 2337,
      "clear": 2338,
      "jailer": 2339,
      "ughter": 2340,
      "approach": 2341,
      "aufidius": 2342,
      "aar": 2343,
      "cir": 2344,
      "catch": 2345,
      "mat": 2346,
      "thither": 2347,
      "inking": 2348,
      "stan": 2349,
      "honesty": 2350,
      "plague": 2351,
      "priest": 2352,
      "courage": 2353,
      "sorry": 2354,
      "blame": 2355,
      "visit": 2356,
      "borne": 2357,
      "several": 2358,
      "spring": 2359,
      "brief": 2360,
      "aaron": 2361,
      "cers": 2362,
      "hunt": 2363,
      "rough": 2364,
      "sme": 2365,
      "sland": 2366,
      "intend": 2367,
      "tower": 2368,
      "imag": 2369,
      "taste": 2370,
      "wert": 2371,
      "holds": 2372,
      "fearful": 2373,
      "drawn": 2374,
      "wait": 2375,
      "wolsey": 2376,
      "swift": 2377,
      "ased": 2378,
      "alive": 2379,
      "awhile": 2380,
      "cat": 2381,
      "gate": 2382,
      "iach": 2383,
      "kin": 2384,
      "ror": 2385,
      "smil": 2386,
      "vouch": 2387,
      "ora": 2388,
      "ander": 2389,
      "escal": 2390,
      "deal": 2391,
      "excuse": 2392,
      "exeter": 2393,
      "sie": 2394,
      "whither": 2395,
      "paul": 2396,
      "glory": 2397,
      "wounds": 2398,
      "dinner": 2399,
      "grumio": 2400,
      "escalus": 2401,
      "ama": 2402,
      "sings": 2403,
      "zen": 2404,
      "table": 2405,
      "tail": 2406,
      "ility": 2407,
      "fied": 2408,
      "jud": 2409,
      "trib": 2410,
      "trium": 2411,
      "besto": 2412,
      "hubert": 2413,
      "kneel": 2414,
      "citizens": 2415,
      "iachimo": 2416,
      "ease": 2417,
      "iled": 2418,
      "mn": 2419,
      "sort": 2420,
      "thro": 2421,
      "inno": 2422,
      "enz": 2423,
      "umn": 2424,
      "dience": 2425,
      "monta": 2426,
      "hearing": 2427,
      "falls": 2428,
      "pains": 2429,
      "large": 2430,
      "struck": 2431,
      "success": 2432,
      "dun": 2433,
      "mere": 2434,
      "mio": 2435,
      "ply": 2436,
      "rid": 2437,
      "making": 2438,
      "endure": 2439,
      "bleed": 2440,
      "sometime": 2441,
      "cheeks": 2442,
      "purse": 2443,
      "virg": 2444,
      "jack": 2445,
      "silver": 2446,
      "officers": 2447,
      "walls": 2448,
      "saturn": 2449,
      "consider": 2450,
      "jealous": 2451,
      "dur": 2452,
      "wine": 2453,
      "thunder": 2454,
      "ariel": 2455,
      "herald": 2456,
      "ided": 2457,
      "fee": 2458,
      "iffer": 2459,
      "quer": 2460,
      "gremio": 2461,
      "broad": 2462,
      "prepar": 2463,
      "winter": 2464,
      "demand": 2465,
      "wretched": 2466,
      "public": 2467,
      "tamora": 2468,
      "garden": 2469,
      "ial": 2470,
      "nes": 2471,
      "thur": 2472,
      "ches": 2473,
      "unning": 2474,
      "tian": 2475,
      "fame": 2476,
      "viol": 2477,
      "fig": 2478,
      "ignor": 2479,
      "octa": 2480,
      "occas": 2481,
      "senator": 2482,
      "sca": 2483,
      "thom": 2484,
      "ries": 2485,
      "import": 2486,
      "unes": 2487,
      "expect": 2488,
      "persu": 2489,
      "mont": 2490,
      "priv": 2491,
      "condition": 2492,
      "_he": 2493,
      "fro": 2494,
      "wanton": 2495,
      "steph": 2496,
      "itors": 2497,
      "remain": 2498,
      "ced": 2499,
      "moor": 2500,
      "fright": 2501,
      "peter": 2502,
      "drunk": 2503,
      "touchstone": 2504,
      "nym": 2505,
      "stephano": 2506,
      "bare": 2507,
      "dwell": 2508,
      "eld": 2509,
      "fif": 2510,
      "tha": 2511,
      "step": 2512,
      "helia": 2513,
      "chang": 2514,
      "forbid": 2515,
      "ades": 2516,
      "uellen": 2517,
      "whence": 2518,
      "diana": 2519,
      "ophelia": 2520,
      "fluellen": 2521,
      "compan": 2522,
      "prisoner": 2523,
      "trumpets": 2524,
      "instant": 2525,
      "adriana": 2526,
      "opinion": 2527,
      "montague": 2528,
      "cunning": 2529,
      "ption": 2530,
      "ancient": 2531,
      "arg": 2532,
      "medes": 2533,
      "shine": 2534,
      "folly": 2535,
      "mercut": 2536,
      "rude": 2537,
      "bearing": 2538,
      "bling": 2539,
      "wits": 2540,
      "kindness": 2541,
      "learned": 2542,
      "flowers": 2543,
      "mercutio": 2544,
      "aid": 2545,
      "boun": 2546,
      "bers": 2547,
      "clu": 2548,
      "gross": 2549,
      "mes": 2550,
      "pier": 2551,
      "smile": 2552,
      "thrice": 2553,
      "ino": 2554,
      "arius": 2555,
      "seven": 2556,
      "request": 2557,
      "doing": 2558,
      "amen": 2559,
      "goodly": 2560,
      "wash": 2561,
      "merch": 2562,
      "fru": 2563,
      "offend": 2564,
      "clock": 2565,
      "blunt": 2566,
      "jew": 2567,
      "commit": 2568,
      "humble": 2569,
      "constable": 2570,
      "drop": 2571,
      "alack": 2572,
      "diomedes": 2573,
      "paulina": 2574,
      "ded": 2575,
      "wing": 2576,
      "start": 2577,
      "vey": 2578,
      "laun": 2579,
      "fears": 2580,
      "fain": 2581,
      "shrew": 2582,
      "ages": 2583,
      "whereof": 2584,
      "belarius": 2585,
      "goner": 2586,
      "guilty": 2587,
      "jaques": 2588,
      "inus": 2589,
      "iss": 2590,
      "stars": 2591,
      "leg": 2592,
      "leans": 2593,
      "vell": 2594,
      "although": 2595,
      "uten": 2596,
      "tire": 2597,
      "neck": 2598,
      "necess": 2599,
      "mortim": 2600,
      "moreland": 2601,
      "mission": 2602,
      "monster": 2603,
      "honours": 2604,
      "precious": 2605,
      "burgun": 2606,
      "westmoreland": 2607,
      "polixen": 2608,
      "servingman": 2609,
      "triumph": 2610,
      "burgundy": 2611,
      "polixenes": 2612,
      "bones": 2613,
      "cried": 2614,
      "enjoy": 2615,
      "fail": 2616,
      "powers": 2617,
      "quit": 2618,
      "moved": 2619,
      "greet": 2620,
      "emp": 2621,
      "author": 2622,
      "angu": 2623,
      "venture": 2624,
      "grows": 2625,
      "katherine": 2626,
      "knock": 2627,
      "liberty": 2628,
      "mortimer": 2629,
      "awake": 2630,
      "bene": 2631,
      "kath": 2632,
      "arine": 2633,
      "whis": 2634,
      "celet": 2635,
      "lawr": 2636,
      "advantage": 2637,
      "poin": 2638,
      "poly": 2639,
      "ify": 2640,
      "knowledge": 2641,
      "hip": 2642,
      "ices": 2643,
      "princely": 2644,
      "tongues": 2645,
      "wicked": 2646,
      "maiden": 2647,
      "volumn": 2648,
      "judgement": 2649,
      "flower": 2650,
      "creature": 2651,
      "smell": 2652,
      "launcelet": 2653,
      "goneril": 2654,
      "katharine": 2655,
      "lawrence": 2656,
      "aene": 2657,
      "gir": 2658,
      "ler": 2659,
      "ming": 2660,
      "hail": 2661,
      "heat": 2662,
      "cet": 2663,
      "keeper": 2664,
      "until": 2665,
      "lain": 2666,
      "verse": 2667,
      "conquer": 2668,
      "perfect": 2669,
      "aked": 2670,
      "spend": 2671,
      "blows": 2672,
      "leaves": 2673,
      "argument": 2674,
      "aeneas": 2675,
      "dit": 2676,
      "fish": 2677,
      "owe": 2678,
      "pun": 2679,
      "rot": 2680,
      "rogue": 2681,
      "ames": 2682,
      "sav": 2683,
      "foe": 2684,
      "dispatch": 2685,
      "affair": 2686,
      "desires": 2687,
      "looked": 2688,
      "tybal": 2689,
      "franc": 2690,
      "lieuten": 2691,
      "defend": 2692,
      "lorenz": 2693,
      "stanley": 2694,
      "virgin": 2695,
      "private": 2696,
      "francis": 2697,
      "lorenzo": 2698,
      "?—": 2699,
      "dry": 2700,
      "ping": 2701,
      "intent": 2702,
      "orleans": 2703,
      "encounter": 2704,
      "allow": 2705,
      "terms": 2706,
      "exeunt": 2707,
      "foes": 2708,
      "shouldst": 2709,
      "spar": 2710,
      "greatness": 2711,
      "corrup": 2712,
      "keeps": 2713,
      "ville": 2714,
      "choice": 2715,
      "fellows": 2716,
      "constant": 2717,
      "cornwall": 2718,
      "twixt": 2719,
      "albany": 2720,
      "tybalt": 2721,
      "fond": 2722,
      "kni": 2723,
      "rare": 2724,
      "vest": 2725,
      "ises": 2726,
      "top": 2727,
      "stance": 2728,
      "melan": 2729,
      "chol": 2730,
      "former": 2731,
      "cock": 2732,
      "faint": 2733,
      "poet": 2734,
      "dumaine": 2735,
      "choly": 2736,
      "benvolio": 2737,
      "knee": 2738,
      "cries": 2739,
      "archbishop": 2740,
      "wrath": 2741,
      "rascal": 2742,
      "amaz": 2743,
      "hid": 2744,
      "loud": 2745,
      "ua": 2746,
      "encr": 2747,
      "story": 2748,
      "legs": 2749,
      "forgive": 2750,
      "als": 2751,
      "iff": 2752,
      "iful": 2753,
      "quire": 2754,
      "antz": 2755,
      "venice": 2756,
      "spent": 2757,
      "abs": 2758,
      "rosencr": 2759,
      "brothers": 2760,
      "chase": 2761,
      "gaunt": 2762,
      "celle": 2763,
      "pucelle": 2764,
      "stuff": 2765,
      "twice": 2766,
      "repent": 2767,
      "fancy": 2768,
      "yonder": 2769,
      "lieutenant": 2770,
      "melancholy": 2771,
      "rosencrantz": 2772,
      "cates": 2773,
      "treas": 2774,
      "ores": 2775,
      "ites": 2776,
      "revol": 2777,
      "roar": 2778,
      "lover": 2779,
      "coll": 2780,
      "lament": 2781,
      "whiles": 2782,
      "disdain": 2783,
      "paid": 2784,
      "naught": 2785,
      "guider": 2786,
      "ronic": 2787,
      "dri": 2788,
      "ked": 2789,
      "net": 2790,
      "swords": 2791,
      "skill": 2792,
      "tw": 2793,
      "tree": 2794,
      "toly": 2795,
      "meat": 2796,
      "sell": 2797,
      "heed": 2798,
      "heels": 2799,
      "chor": 2800,
      "eds": 2801,
      "yourselves": 2802,
      "manners": 2803,
      "neg": 2804,
      "tagen": 2805,
      "exam": 2806,
      "safet": 2807,
      "gree": 2808,
      "autoly": 2809,
      "cursed": 2810,
      "steel": 2811,
      "throne": 2812,
      "lawful": 2813,
      "contents": 2814,
      "chamberlain": 2815,
      "damned": 2816,
      "towards": 2817,
      "finger": 2818,
      "banquo": 2819,
      "solemn": 2820,
      "plantagen": 2821,
      "guiderius": 2822,
      "autolycus": 2823,
      "cing": 2824,
      "cum": 2825,
      "erle": 2826,
      "arthur": 2827,
      "memor": 2828,
      "reput": 2829,
      "weap": 2830,
      "weigh": 2831,
      "loyal": 2832,
      "decei": 2833,
      "dower": 2834,
      "lavin": 2835,
      "tray": 2836,
      "food": 2837,
      "emplo": 2838,
      "guild": 2839,
      "casca": 2840,
      "wrongs": 2841,
      "direct": 2842,
      "govern": 2843,
      "christian": 2844,
      "thomas": 2845,
      "safety": 2846,
      "lavinia": 2847,
      "employ": 2848,
      "_within": 2849,
      "cil": 2850,
      "dum": 2851,
      "ox": 2852,
      "pid": 2853,
      "thief": 2854,
      "stro": 2855,
      "nose": 2856,
      "lean": 2857,
      "reck": 2858,
      "betray": 2859,
      "chester": 2860,
      "lovers": 2861,
      "fabian": 2862,
      "cali": 2863,
      "shore": 2864,
      "mayst": 2865,
      "sometimes": 2866,
      "plex": 2867,
      "mond": 2868,
      "heavenly": 2869,
      "blest": 2870,
      "weeping": 2871,
      "fury": 2872,
      "execution": 2873,
      "neighbour": 2874,
      "slander": 2875,
      "occasion": 2876,
      "plantagenet": 2877,
      "dat": 2878,
      "fought": 2879,
      "grown": 2880,
      "instr": 2881,
      "enforce": 2882,
      "habit": 2883,
      "lepid": 2884,
      "reme": 2885,
      "roclus": 2886,
      "ety": 2887,
      "idle": 2888,
      "ident": 2889,
      "ties": 2890,
      "mow": 2891,
      "perform": 2892,
      "sack": 2893,
      "disgrace": 2894,
      "berry": 2895,
      "richmond": 2896,
      "prepare": 2897,
      "follows": 2898,
      "patroclus": 2899,
      "oaths": 2900,
      "vows": 2901,
      "philip": 2902,
      "instrument": 2903,
      "lepidus": 2904,
      "_reads": 2905,
      "aum": 2906,
      "cket": 2907,
      "pes": 2908,
      "tu": 2909,
      "tune": 2910,
      "zard": 2911,
      "mach": 2912,
      "malice": 2913,
      "perate": 2914,
      "sau": 2915,
      "protest": 2916,
      "dig": 2917,
      "fix": 2918,
      "broken": 2919,
      "gentlewoman": 2920,
      "abhor": 2921,
      "madness": 2922,
      "courtesy": 2923,
      "seeming": 2924,
      "damn": 2925,
      "philo": 2926,
      "number": 2927,
      "caliban": 2928,
      "aumerle": 2929,
      "bend": 2930,
      "bion": 2931,
      "crow": 2932,
      "langu": 2933,
      "medi": 2934,
      "melt": 2935,
      "leis": 2936,
      "becomes": 2937,
      "logue": 2938,
      "dello": 2939,
      "doom": 2940,
      "gower": 2941,
      "ney": 2942,
      "trans": 2943,
      "ously": 2944,
      "agger": 2945,
      "plead": 2946,
      "spite": 2947,
      "wards": 2948,
      "bids": 2949,
      "burden": 2950,
      "slaughter": 2951,
      "window": 2952,
      "remembr": 2953,
      "mbs": 2954,
      "colours": 2955,
      "borrow": 2956,
      "nestor": 2957,
      "pyra": 2958,
      "particul": 2959,
      "urio": 2960,
      "polyta": 2961,
      "hippolyta": 2962,
      "catesby": 2963,
      "biondello": 2964,
      "differ": 2965,
      "len": 2966,
      "pick": 2967,
      "slow": 2968,
      "twill": 2969,
      "stones": 2970,
      "ride": 2971,
      "vide": 2972,
      "proclaim": 2973,
      "giving": 2974,
      "bray": 2975,
      "fiend": 2976,
      "strous": 2977,
      "accord": 2978,
      "lands": 2979,
      "horses": 2980,
      "minister": 2981,
      "mountain": 2982,
      "advance": 2983,
      "saturninus": 2984,
      "volumnia": 2985,
      "affairs": 2986,
      "flies": 2987,
      "hat": 2988,
      "lis": 2989,
      "rate": 2990,
      "tut": 2991,
      "wag": 2992,
      "threat": 2993,
      "thurio": 2994,
      "anda": 2995,
      "seat": 2996,
      "dec": 2997,
      "gown": 2998,
      "taking": 2999,
      "condem": 3000,
      "exceed": 3001,
      "venge": 3002,
      "seeing": 3003,
      "dust": 3004,
      "pleased": 3005,
      "civil": 3006,
      "despair": 3007,
      "miser": 3008,
      "begins": 3009,
      "winchester": 3010,
      "griefs": 3011,
      "knights": 3012,
      "flood": 3013,
      "clouds": 3014,
      "merchant": 3015,
      "fruit": 3016,
      "egy": 3017,
      "fy": 3018,
      "hill": 3019,
      "sits": 3020,
      "thrust": 3021,
      "incu": 3022,
      "orious": 3023,
      "beyond": 3024,
      "liar": 3025,
      "cture": 3026,
      "dign": 3027,
      "armour": 3028,
      "killed": 3029,
      "chain": 3030,
      "cuck": 3031,
      "deserve": 3032,
      "regard": 3033,
      "subjects": 3034,
      "quality": 3035,
      "senators": 3036,
      "sighs": 3037,
      "dreadful": 3038,
      "gift": 3039,
      "knife": 3040,
      "leisure": 3041,
      "abroad": 3042,
      "big": 3043,
      "fits": 3044,
      "line": 3045,
      "swell": 3046,
      "zalo": 3047,
      "seiz": 3048,
      "wives": 3049,
      "forbear": 3050,
      "formed": 3051,
      "lican": 3052,
      "ria": 3053,
      "express": 3054,
      "scri": 3055,
      "spare": 3056,
      "desperate": 3057,
      "apart": 3058,
      "warm": 3059,
      "lived": 3060,
      "tenance": 3061,
      "corde": 3062,
      "maids": 3063,
      "vail": 3064,
      "rank": 3065,
      "swore": 3066,
      "gonzalo": 3067,
      "study": 3068,
      "profess": 3069,
      "guilt": 3070,
      "season": 3071,
      "tribunes": 3072,
      "bestow": 3073,
      "list": 3074,
      "mill": 3075,
      "mild": 3076,
      "twel": 3077,
      "ences": 3078,
      "enstern": 3079,
      "issa": 3080,
      "ref": 3081,
      "weight": 3082,
      "always": 3083,
      "convey": 3084,
      "shut": 3085,
      "goodness": 3086,
      "teen": 3087,
      "afford": 3088,
      "cians": 3089,
      "miss": 3090,
      "apt": 3091,
      "monstrous": 3092,
      "tyrant": 3093,
      "standing": 3094,
      "buck": 3095,
      "buried": 3096,
      "meaning": 3097,
      "happiness": 3098,
      "nerissa": 3099,
      "phoe": 3100,
      "appears": 3101,
      "renown": 3102,
      "plot": 3103,
      "supper": 3104,
      "counterfeit": 3105,
      "modest": 3106,
      "easy": 3107,
      "horns": 3108,
      "britain": 3109,
      "whisper": 3110,
      "guildenstern": 3111,
      "mowbray": 3112,
      "cordelia": 3113,
      "aking": 3114,
      "fil": 3115,
      "mas": 3116,
      "mend": 3117,
      "ns": 3118,
      "hall": 3119,
      "real": 3120,
      "cease": 3121,
      "consu": 3122,
      "disgu": 3123,
      "discourse": 3124,
      "affect": 3125,
      "despite": 3126,
      "merit": 3127,
      "guest": 3128,
      "stomach": 3129,
      "reasons": 3130,
      "crowns": 3131,
      "fourth": 3132,
      "drops": 3133,
      "flavius": 3134,
      "circum": 3135,
      "treasure": 3136,
      "ey": 3137,
      "hit": 3138,
      "ica": 3139,
      "jour": 3140,
      "nap": 3141,
      "niece": 3142,
      "ome": 3143,
      "pul": 3144,
      "pound": 3145,
      "wings": 3146,
      "anor": 3147,
      "eros": 3148,
      "envy": 3149,
      "itu": 3150,
      "wide": 3151,
      "forsworn": 3152,
      "liest": 3153,
      "loath": 3154,
      "doors": 3155,
      "faction": 3156,
      "condu": 3157,
      "trincu": 3158,
      "shed": 3159,
      "outward": 3160,
      "worcester": 3161,
      "duc": 3162,
      "bred": 3163,
      "warlike": 3164,
      "priam": 3165,
      "trial": 3166,
      "hanged": 3167,
      "miranda": 3168,
      "burning": 3169,
      "sooner": 3170,
      "bride": 3171,
      "bridge": 3172,
      "profit": 3173,
      "eleanor": 3174,
      "credit": 3175,
      "reverend": 3176,
      "storm": 3177,
      "remembrance": 3178,
      "aville": 3179,
      "nar": 3180,
      "vous": 3181,
      "thrive": 3182,
      "ances": 3183,
      "thed": 3184,
      "arvir": 3185,
      "andronic": 3186,
      "sees": 3187,
      "helican": 3188,
      "rebel": 3189,
      "assu": 3190,
      "alci": 3191,
      "loose": 3192,
      "rivers": 3193,
      "hers": 3194,
      "hermi": 3195,
      "ters": 3196,
      "sheep": 3197,
      "therein": 3198,
      "teeth": 3199,
      "agus": 3200,
      "discover": 3201,
      "pace": 3202,
      "cial": 3203,
      "lucet": 3204,
      "countenance": 3205,
      "longaville": 3206,
      "bark": 3207,
      "troop": 3208,
      "turns": 3209,
      "painted": 3210,
      "countryman": 3211,
      "maintain": 3212,
      "mirth": 3213,
      "hopes": 3214,
      "tempest": 3215,
      "biades": 3216,
      "pyramus": 3217,
      "twelve": 3218,
      "trinculo": 3219,
      "arviragus": 3220,
      "andronicus": 3221,
      "alcibiades": 3222,
      "hermione": 3223,
      "lucetta": 3224,
      "_the": 3225,
      "ball": 3226,
      "equal": 3227,
      "fret": 3228,
      "jure": 3229,
      "nine": 3230,
      "oliver": 3231,
      "ernes": 3232,
      "instru": 3233,
      "armed": 3234,
      "ofernes": 3235,
      "leep": 3236,
      "asleep": 3237,
      "deter": 3238,
      "ament": 3239,
      "tide": 3240,
      "faces": 3241,
      "contr": 3242,
      "perf": 3243,
      "woes": 3244,
      "angel": 3245,
      "prevent": 3246,
      "minds": 3247,
      "practi": 3248,
      "meeting": 3249,
      "humbly": 3250,
      "spoken": 3251,
      "protector": 3252,
      "wales": 3253,
      "knees": 3254,
      "ransom": 3255,
      "gallant": 3256,
      "acquaint": 3257,
      "scot": 3258,
      "holofernes": 3259,
      "innocent": 3260,
      "remedy": 3261,
      "apo": 3262,
      "cere": 3263,
      "east": 3264,
      "honey": 3265,
      "kn": 3266,
      "render": 3267,
      "wak": 3268,
      "thie": 3269,
      "thick": 3270,
      "essed": 3271,
      "search": 3272,
      "rip": 3273,
      "imon": 3274,
      "undone": 3275,
      "feet": 3276,
      "saying": 3277,
      "traitors": 3278,
      "petition": 3279,
      "phrey": 3280,
      "charity": 3281,
      "dearest": 3282,
      "suffi": 3283,
      "single": 3284,
      "humphrey": 3285,
      "musi": 3286,
      "vised": 3287,
      "winds": 3288,
      "simon": 3289,
      "object": 3290,
      "wretch": 3291,
      "cupid": 3292,
      "memory": 3293,
      "dumb": 3294,
      "aim": 3295,
      "fed": 3296,
      "furn": 3297,
      "groom": 3298,
      "jess": 3299,
      "naked": 3300,
      "pent": 3301,
      "shot": 3302,
      "ital": 3303,
      "ution": 3304,
      "loo": 3305,
      "taught": 3306,
      "qua": 3307,
      "womb": 3308,
      "north": 3309,
      "glas": 3310,
      "stranger": 3311,
      "acle": 3312,
      "ical": 3313,
      "preser": 3314,
      "sore": 3315,
      "izel": 3316,
      "dogberry": 3317,
      "obedience": 3318,
      "romans": 3319,
      "waste": 3320,
      "conceit": 3321,
      "florizel": 3322,
      "kinsman": 3323,
      "girl": 3324,
      "punish": 3325,
      "particular": 3326,
      "bition": 3327,
      "cro": 3328,
      "chaste": 3329,
      "ffi": 3330,
      "flight": 3331,
      "gment": 3332,
      "iest": 3333,
      "lou": 3334,
      "nal": 3335,
      "pie": 3336,
      "ume": 3337,
      "tomb": 3338,
      "sty": 3339,
      "iter": 3340,
      "roy": 3341,
      "wither": 3342,
      "key": 3343,
      "idings": 3344,
      "lets": 3345,
      "mars": 3346,
      "mayor": 3347,
      "desc": 3348,
      "tyran": 3349,
      "elbow": 3350,
      "ruin": 3351,
      "trick": 3352,
      "deadly": 3353,
      "denied": 3354,
      "douglas": 3355,
      "custom": 3356,
      "colm": 3357,
      "malcolm": 3358,
      "received": 3359,
      "jessica": 3360,
      "ots": 3361,
      "pend": 3362,
      "pill": 3363,
      "sour": 3364,
      "ank": 3365,
      "oult": 3366,
      "meant": 3367,
      "sequ": 3368,
      "thisbe": 3369,
      "este": 3370,
      "amp": 3371,
      "extrem": 3372,
      "bled": 3373,
      "brings": 3374,
      "pping": 3375,
      "daughters": 3376,
      "ferdin": 3377,
      "sounds": 3378,
      "freely": 3379,
      "uteous": 3380,
      "suspect": 3381,
      "durst": 3382,
      "authority": 3383,
      "oxford": 3384,
      "helicanus": 3385,
      "simonides": 3386,
      "ferdinand": 3387,
      "_a": 3388,
      "cou": 3389,
      "dim": 3390,
      "eag": 3391,
      "ithou": 3392,
      "mart": 3393,
      "tort": 3394,
      "err": 3395,
      "ination": 3396,
      "invent": 3397,
      "thes": 3398,
      "rema": 3399,
      "assure": 3400,
      "dew": 3401,
      "dece": 3402,
      "hollow": 3403,
      "vices": 3404,
      "peril": 3405,
      "lovely": 3406,
      "agrip": 3407,
      "dish": 3408,
      "dying": 3409,
      "monument": 3410,
      "accuse": 3411,
      "gues": 3412,
      "guess": 3413,
      "rule": 3414,
      "wald": 3415,
      "confound": 3416,
      "treach": 3417,
      "wallow": 3418,
      "sickness": 3419,
      "hung": 3420,
      "victory": 3421,
      "pirithou": 3422,
      "figure": 3423,
      "thaisa": 3424,
      "empty": 3425,
      "absence": 3426,
      "agrippa": 3427,
      "pirithous": 3428,
      "?”": 3429,
      "dor": 3430,
      "ians": 3431,
      "rash": 3432,
      "tidings": 3433,
      "thir": 3434,
      "ane": 3435,
      "anch": 3436,
      "token": 3437,
      "leap": 3438,
      "retire": 3439,
      "wixt": 3440,
      "lod": 3441,
      "tive": 3442,
      "tied": 3443,
      "pron": 3444,
      "conclu": 3445,
      "cave": 3446,
      "boot": 3447,
      "commission": 3448,
      "complex": 3449,
      "sacred": 3450,
      "marian": 3451,
      "prophe": 3452,
      "sweat": 3453,
      "graces": 3454,
      "mony": 3455,
      "abuse": 3456,
      "betwixt": 3457,
      "early": 3458,
      "tribut": 3459,
      "puts": 3460,
      "tedious": 3461,
      "dress": 3462,
      "everything": 3463,
      "turned": 3464,
      "attending": 3465,
      "laws": 3466,
      "sleeping": 3467,
      "human": 3468,
      "oswald": 3469,
      "groan": 3470,
      "divine": 3471,
      "satisfied": 3472,
      "jury": 3473,
      "sieur": 3474,
      "according": 3475,
      "vengeance": 3476,
      "itude": 3477,
      "bind": 3478,
      "bought": 3479,
      "boult": 3480,
      "cin": 3481,
      "fun": 3482,
      "sl": 3483,
      "swallow": 3484,
      "tance": 3485,
      "ths": 3486,
      "below": 3487,
      "whore": 3488,
      "vex": 3489,
      "uses": 3490,
      "delay": 3491,
      "doll": 3492,
      "imper": 3493,
      "image": 3494,
      "estate": 3495,
      "vious": 3496,
      "knowing": 3497,
      "ague": 3498,
      "lucre": 3499,
      "monsieur": 3500,
      "council": 3501,
      "earnest": 3502,
      "void": 3503,
      "virtues": 3504,
      "luciana": 3505,
      "dares": 3506,
      "crack": 3507,
      "passa": 3508,
      "picture": 3509,
      "modesty": 3510,
      "suddenly": 3511,
      "vouchsafe": 3512,
      "tailor": 3513,
      "_sings": 3514,
      "hie": 3515,
      "inv": 3516,
      "ining": 3517,
      "lled": 3518,
      "haps": 3519,
      "repair": 3520,
      "chide": 3521,
      "robert": 3522,
      "alen": 3523,
      "contra": 3524,
      "vii": 3525,
      "lovell": 3526,
      "hereafter": 3527,
      "dishonour": 3528,
      "bade": 3529,
      "fiery": 3530,
      "empress": 3531,
      "fron": 3532,
      "prick": 3533,
      "bull": 3534,
      "voices": 3535,
      "painter": 3536,
      "salt": 3537,
      "streets": 3538,
      "physi": 3539,
      "birds": 3540,
      "throat": 3541,
      "ade": 3542,
      "bb": 3543,
      "fin": 3544,
      "names": 3545,
      "rush": 3546,
      "vish": 3547,
      "”.": 3548,
      "iny": 3549,
      "incl": 3550,
      "ario": 3551,
      "onso": 3552,
      "stick": 3553,
      "root": 3554,
      "lig": 3555,
      "alonso": 3556,
      "ripe": 3557,
      "rible": 3558,
      "cool": 3559,
      "ambass": 3560,
      "tier": 3561,
      "geon": 3562,
      "contro": 3563,
      "concer": 3564,
      "confer": 3565,
      "quince": 3566,
      "sian": 3567,
      "sire": 3568,
      "speaking": 3569,
      "menas": 3570,
      "mischief": 3571,
      "strang": 3572,
      "greatest": 3573,
      "fairy": 3574,
      "achio": 3575,
      "account": 3576,
      "build": 3577,
      "capi": 3578,
      "finds": 3579,
      "porter": 3580,
      "stream": 3581,
      "wooer": 3582,
      "delivered": 3583,
      "violent": 3584,
      "phoebe": 3585,
      "realm": 3586,
      "ducats": 3587,
      "ambassad": 3588,
      "balth": 3589,
      "bility": 3590,
      "chast": 3591,
      "lun": 3592,
      "stoo": 3593,
      "south": 3594,
      "thrown": 3595,
      "isher": 3596,
      "stab": 3597,
      "noon": 3598,
      "hazard": 3599,
      "seest": 3600,
      "recover": 3601,
      "usion": 3602,
      "ram": 3603,
      "lysim": 3604,
      "tily": 3605,
      "feat": 3606,
      "disposition": 3607,
      "tells": 3608,
      "fathers": 3609,
      "achus": 3610,
      "garter": 3611,
      "prey": 3612,
      "troj": 3613,
      "purpos": 3614,
      "beaten": 3615,
      "draws": 3616,
      "crave": 3617,
      "sky": 3618,
      "vincentio": 3619,
      "smooth": 3620,
      "spake": 3621,
      "lysimachus": 3622,
      "bent": 3623,
      "ible": 3624,
      "och": 3625,
      "pour": 3626,
      "snow": 3627,
      "sway": 3628,
      "slight": 3629,
      "tread": 3630,
      "thorn": 3631,
      "store": 3632,
      "device": 3633,
      "raven": 3634,
      "ambition": 3635,
      "tic": 3636,
      "contempt": 3637,
      "shout": 3638,
      "ainted": 3639,
      "perchance": 3640,
      "worm": 3641,
      "fier": 3642,
      "served": 3643,
      "glorious": 3644,
      "appre": 3645,
      "blown": 3646,
      "prize": 3647,
      "garments": 3648,
      "rug": 3649,
      "following": 3650,
      "followers": 3651,
      "stock": 3652,
      "challen": 3653,
      "puck": 3654,
      "runs": 3655,
      "surrey": 3656,
      "borachio": 3657,
      "gifts": 3658,
      "debt": 3659,
      "devise": 3660,
      "conduct": 3661,
      "thieves": 3662,
      "challenge": 3663,
      "bill": 3664,
      "fate": 3665,
      "sought": 3666,
      "sides": 3667,
      "zz": 3668,
      "thinking": 3669,
      "inher": 3670,
      "infect": 3671,
      "endower": 3672,
      "stat": 3673,
      "forces": 3674,
      "deem": 3675,
      "cox": 3676,
      "advice": 3677,
      "admit": 3678,
      "morn": 3679,
      "boast": 3680,
      "worn": 3681,
      "aged": 3682,
      "brand": 3683,
      "glendower": 3684,
      "fairest": 3685,
      "friendship": 3686,
      "acc": 3687,
      "party": 3688,
      "parted": 3689,
      "parent": 3690,
      "affli": 3691,
      "stead": 3692,
      "carri": 3693,
      "bodies": 3694,
      "minute": 3695,
      "portion": 3696,
      "vision": 3697,
      "wont": 3698,
      "kisses": 3699,
      "desert": 3700,
      "dogs": 3701,
      "blessing": 3702,
      "feeling": 3703,
      "frame": 3704,
      "tarqu": 3705,
      "brows": 3706,
      "reignier": 3707,
      "ignorant": 3708,
      "twain": 3709,
      "negle": 3710,
      "reputation": 3711,
      "egypt": 3712,
      "contrary": 3713,
      "pronoun": 3714,
      "mariana": 3715,
      "capitol": 3716,
      "eight": 3717,
      "rum": 3718,
      "”,": 3719,
      "whores": 3720,
      "chiron": 3721,
      "enton": 3722,
      "lodo": 3723,
      "unknown": 3724,
      "raise": 3725,
      "felt": 3726,
      "feather": 3727,
      "prise": 3728,
      "confirm": 3729,
      "perforce": 3730,
      "marcell": 3731,
      "gious": 3732,
      "misery": 3733,
      "fairly": 3734,
      "merri": 3735,
      "assur": 3736,
      "curr": 3737,
      "shire": 3738,
      "bedford": 3739,
      "messala": 3740,
      "titan": 3741,
      "prisoners": 3742,
      "shortly": 3743,
      "cliffe": 3744,
      "tarry": 3745,
      "darkness": 3746,
      "reverence": 3747,
      "fami": 3748,
      "ratcliffe": 3749,
      "pointed": 3750,
      "alencon": 3751,
      "marcellus": 3752,
      ",’": 3753,
      "10": 3754,
      "ado": 3755,
      "pad": 3756,
      "sly": 3757,
      "methought": 3758,
      "lewis": 3759,
      "belong": 3760,
      "forfeit": 3761,
      "forsooth": 3762,
      "alter": 3763,
      "tio": 3764,
      "pear": 3765,
      "admir": 3766,
      "suck": 3767,
      "ilt": 3768,
      "honoured": 3769,
      "appet": 3770,
      "appare": 3771,
      "hearted": 3772,
      "offended": 3773,
      "accus": 3774,
      "oppos": 3775,
      "prefer": 3776,
      "undertake": 3777,
      "ships": 3778,
      "followed": 3779,
      "sentence": 3780,
      "chair": 3781,
      "sleeps": 3782,
      "gaol": 3783,
      "constance": 3784,
      "dreams": 3785,
      "alexand": 3786,
      "smiles": 3787,
      "octavius": 3788,
      "language": 3789,
      "looking": 3790,
      "cate": 3791,
      "fenton": 3792,
      "wink": 3793,
      "thri": 3794,
      "inite": 3795,
      "island": 3796,
      "haply": 3797,
      "behalf": 3798,
      "whit": 3799,
      "asar": 3800,
      "rock": 3801,
      "edge": 3802,
      "limbs": 3803,
      "weeds": 3804,
      "utes": 3805,
      "degree": 3806,
      "coz": 3807,
      "ards": 3808,
      "shr": 3809,
      "except": 3810,
      "sici": 3811,
      "mov": 3812,
      "boar": 3813,
      "seless": 3814,
      "scro": 3815,
      "score": 3816,
      "ult": 3817,
      "oked": 3818,
      "babe": 3819,
      "assist": 3820,
      "brains": 3821,
      "braban": 3822,
      "barren": 3823,
      "began": 3824,
      "ctions": 3825,
      "bush": 3826,
      "stol": 3827,
      "creep": 3828,
      "pleasures": 3829,
      "hanging": 3830,
      "calf": 3831,
      "villains": 3832,
      "signs": 3833,
      "sorrows": 3834,
      "promised": 3835,
      "policy": 3836,
      "decay": 3837,
      "practice": 3838,
      "complexion": 3839,
      "balthasar": 3840,
      "brabantio": 3841,
      "dion": 3842,
      "knot": 3843,
      "length": 3844,
      "mask": 3845,
      "ober": 3846,
      "sink": 3847,
      "ug": 3848,
      "wander": 3849,
      "record": 3850,
      "beloved": 3851,
      "asy": 3852,
      "liv": 3853,
      "del": 3854,
      "vernon": 3855,
      "idence": 3856,
      "prus": 3857,
      "perhaps": 3858,
      "wrought": 3859,
      "cyprus": 3860,
      "dearly": 3861,
      "cran": 3862,
      "cares": 3863,
      "silvius": 3864,
      "strikes": 3865,
      "windsor": 3866,
      "strain": 3867,
      "dame": 3868,
      "davy": 3869,
      "hateful": 3870,
      "bassian": 3871,
      "creatures": 3872,
      "acquainted": 3873,
      "fatal": 3874,
      "fingers": 3875,
      "mourn": 3876,
      "infinite": 3877,
      "pieces": 3878,
      "lucrece": 3879,
      "familiar": 3880,
      "oberon": 3881,
      "bassianus": 3882,
      "crom": 3883,
      "drew": 3884,
      "fisher": 3885,
      "ired": 3886,
      "mong": 3887,
      "rhy": 3888,
      "intell": 3889,
      "orous": 3890,
      "ator": 3891,
      "stret": 3892,
      "repe": 3893,
      "reward": 3894,
      "rebell": 3895,
      "wears": 3896,
      "rail": 3897,
      "ads": 3898,
      "tast": 3899,
      "tame": 3900,
      "shif": 3901,
      "comb": 3902,
      "combat": 3903,
      "perish": 3904,
      "wholes": 3905,
      "discre": 3906,
      "vessel": 3907,
      "joint": 3908,
      "partly": 3909,
      "park": 3910,
      "pursu": 3911,
      "clam": 3912,
      "charged": 3913,
      "cler": 3914,
      "compass": 3915,
      "kindly": 3916,
      "senate": 3917,
      "faced": 3918,
      "temple": 3919,
      "blast": 3920,
      "crowned": 3921,
      "antioch": 3922,
      "beaut": 3923,
      "beauteous": 3924,
      "belly": 3925,
      "countrymen": 3926,
      "volsc": 3927,
      "wounded": 3928,
      "milan": 3929,
      "mount": 3930,
      "soothsay": 3931,
      "affections": 3932,
      "pinch": 3933,
      "freed": 3934,
      "bounty": 3935,
      "rotten": 3936,
      "stroke": 3937,
      "data": 3938,
      "louis": 3939,
      "padua": 3940,
      "alexandria": 3941,
      "bay": 3942,
      "cue": 3943,
      "dess": 3944,
      "event": 3945,
      "pil": 3946,
      "wl": 3947,
      "wants": 3948,
      "havi": 3949,
      "relie": 3950,
      "beau": 3951,
      "vet": 3952,
      "deer": 3953,
      "coat": 3954,
      "odds": 3955,
      "adam": 3956,
      "conspir": 3957,
      "ext": 3958,
      "mood": 3959,
      "board": 3960,
      "vico": 3961,
      "complain": 3962,
      "sirs": 3963,
      "market": 3964,
      "prologue": 3965,
      "distra": 3966,
      "mistake": 3967,
      "goddess": 3968,
      "places": 3969,
      "ladyship": 3970,
      "wrest": 3971,
      "clothes": 3972,
      "cleon": 3973,
      "pressed": 3974,
      "carried": 3975,
      "strife": 3976,
      "pract": 3977,
      "calm": 3978,
      "lasting": 3979,
      "spot": 3980,
      "contented": 3981,
      "simp": 3982,
      "deserved": 3983,
      "knaves": 3984,
      "favours": 3985,
      "drums": 3986,
      "groans": 3987,
      "numbers": 3988,
      "destroy": 3989,
      "octavia": 3990,
      "elder": 3991,
      "cuckold": 3992,
      "assured": 3993,
      "remains": 3994,
      "tarquin": 3995,
      "lodovico": 3996,
      "appetite": 3997,
      "cromwell": 3998,
      "wholesome": 3999,
      "soothsayer": 4000,
      "bag": 4001,
      "dagger": 4002,
      "lent": 4003,
      "nice": 4004,
      "pic": 4005,
      "tall": 4006,
      "ising": 4007,
      "arise": 4008,
      "arrest": 4009,
      "nobly": 4010,
      "hears": 4011,
      "belike": 4012,
      "iras": 4013,
      "weather": 4014,
      "lot": 4015,
      "unfold": 4016,
      "rag": 4017,
      "raid": 4018,
      "lamb": 4019,
      "peers": 4020,
      "adventure": 4021,
      "exper": 4022,
      "moment": 4023,
      "greek": 4024,
      "displeasure": 4025,
      "pause": 4026,
      "afraid": 4027,
      "fairer": 4028,
      "prayer": 4029,
      "trade": 4030,
      "check": 4031,
      "bler": 4032,
      "corin": 4033,
      "begg": 4034,
      "native": 4035,
      "senior": 4036,
      "attended": 4037,
      "henceforth": 4038,
      "hangs": 4039,
      "gaz": 4040,
      "devils": 4041,
      "hugh": 4042,
      "midnight": 4043,
      "physic": 4044,
      "solute": 4045,
      "companion": 4046,
      "revolt": 4047,
      "weapons": 4048,
      "esteem": 4049,
      "fierce": 4050,
      "alike": 4051,
      "bours": 4052,
      "ely": 4053,
      "plu": 4054,
      "ware": 4055,
      "yo": 4056,
      "arino": 4057,
      "nobles": 4058,
      "lied": 4059,
      "lower": 4060,
      "soci": 4061,
      "unhappy": 4062,
      "male": 4063,
      "alle": 4064,
      "tired": 4065,
      "aded": 4066,
      "nephe": 4067,
      "tres": 4068,
      "shun": 4069,
      "teous": 4070,
      "perdit": 4071,
      "canter": 4072,
      "proportion": 4073,
      "ump": 4074,
      "special": 4075,
      "gently": 4076,
      "fairies": 4077,
      "accept": 4078,
      "courtier": 4079,
      "barbar": 4080,
      "ullus": 4081,
      "wax": 4082,
      "surely": 4083,
      "grieve": 4084,
      "substance": 4085,
      "wondr": 4086,
      "gather": 4087,
      "salarino": 4088,
      "huge": 4089,
      "plant": 4090,
      "defence": 4091,
      "pitch": 4092,
      "stained": 4093,
      "amongst": 4094,
      "willingly": 4095,
      "judgment": 4096,
      "feeble": 4097,
      "ignorance": 4098,
      "scape": 4099,
      "chorus": 4100,
      "deceived": 4101,
      "difference": 4102,
      "knit": 4103,
      "physician": 4104,
      "perdita": 4105,
      "bite": 4106,
      "mbroke": 4107,
      "pant": 4108,
      "sm": 4109,
      "task": 4110,
      "inju": 4111,
      "inform": 4112,
      "stage": 4113,
      "rejo": 4114,
      "reach": 4115,
      "remove": 4116,
      "begu": 4117,
      "cep": 4118,
      "ldom": 4119,
      "dola": 4120,
      "impossible": 4121,
      "ambit": 4122,
      "peas": 4123,
      "pembroke": 4124,
      "advised": 4125,
      "potent": 4126,
      "quench": 4127,
      "shill": 4128,
      "thereof": 4129,
      "scur": 4130,
      "fox": 4131,
      "marks": 4132,
      "pawn": 4133,
      "serves": 4134,
      "handker": 4135,
      "breach": 4136,
      "abide": 4137,
      "_exit_": 4138,
      "privile": 4139,
      "travel": 4140,
      "cheap": 4141,
      "roses": 4142,
      "sets": 4143,
      "showed": 4144,
      "charac": 4145,
      "justly": 4146,
      "slew": 4147,
      "strive": 4148,
      "farther": 4149,
      "subtle": 4150,
      "wronged": 4151,
      "villainy": 4152,
      "sends": 4153,
      "weeps": 4154,
      "stronger": 4155,
      "commanded": 4156,
      "hardly": 4157,
      "curi": 4158,
      "penny": 4159,
      "mouths": 4160,
      "lartius": 4161,
      "athenian": 4162,
      "eternal": 4163,
      "books": 4164,
      "torment": 4165,
      "lusty": 4166,
      "banishment": 4167,
      "advise": 4168,
      "months": 4169,
      "schoolmaster": 4170,
      "jealousy": 4171,
      "prepared": 4172,
      "benefit": 4173,
      "reckon": 4174,
      "titania": 4175,
      "yoke": 4176,
      "canterbury": 4177,
      "wondrous": 4178,
      "ambitious": 4179,
      "avoid": 4180,
      "ix": 4181,
      "mould": 4182,
      "sine": 4183,
      "sins": 4184,
      "isle": 4185,
      "ona": 4186,
      "ited": 4187,
      "repro": 4188,
      "beam": 4189,
      "begot": 4190,
      "chid": 4191,
      "also": 4192,
      "decl": 4193,
      "iment": 4194,
      "ung": 4195,
      "unworthy": 4196,
      "unnatural": 4197,
      "mak": 4198,
      "mage": 4199,
      "amiss": 4200,
      "ckle": 4201,
      "bolt": 4202,
      "pers": 4203,
      "mul": 4204,
      "mult": 4205,
      "hereford": 4206,
      "grew": 4207,
      "grecian": 4208,
      "nights": 4209,
      "friendly": 4210,
      "reading": 4211,
      "welsh": 4212,
      "afterwards": 4213,
      "stays": 4214,
      "plays": 4215,
      "silent": 4216,
      "pleasant": 4217,
      "craft": 4218,
      "deserves": 4219,
      "passing": 4220,
      "milk": 4221,
      "zeal": 4222,
      "woeful": 4223,
      "wolf": 4224,
      "secure": 4225,
      "robin": 4226,
      "wrack": 4227,
      "banquet": 4228,
      "smiling": 4229,
      "necessity": 4230,
      "acquaintance": 4231,
      "cinna": 4232,
      "trojan": 4233,
      "purposes": 4234,
      "whoreson": 4235,
      "apparel": 4236,
      "ali": 4237,
      "bble": 4238,
      "cand": 4239,
      "drive": 4240,
      "glove": 4241,
      "inous": 4242,
      "ense": 4243,
      "arri": 4244,
      "andra": 4245,
      "height": 4246,
      "wept": 4247,
      "ric": 4248,
      "urge": 4249,
      "odd": 4250,
      "capa": 4251,
      "whip": 4252,
      "indu": 4253,
      "pack": 4254,
      "ement": 4255,
      "bread": 4256,
      "achie": 4257,
      "heartily": 4258,
      "tled": 4259,
      "trim": 4260,
      "senses": 4261,
      "crease": 4262,
      "wail": 4263,
      "faithful": 4264,
      "harsh": 4265,
      "slaves": 4266,
      "earthly": 4267,
      "falsehood": 4268,
      "pedant": 4269,
      "kissing": 4270,
      "wishes": 4271,
      "observ": 4272,
      "bravely": 4273,
      "tremble": 4274,
      "troubled": 4275,
      "grim": 4276,
      "provided": 4277,
      "entertainment": 4278,
      "bleeding": 4279,
      "committed": 4280,
      "shrewd": 4281,
      "dignity": 4282,
      "furnish": 4283,
      "passage": 4284,
      "freedom": 4285,
      "dolabella": 4286,
      "_flourish": 4287,
      "eve": 4288,
      "hounds": 4289,
      "lin": 4290,
      "lish": 4291,
      "leness": 4292,
      "lines": 4293,
      "mene": 4294,
      "mass": 4295,
      "nation": 4296,
      "ress": 4297,
      "rous": 4298,
      "squ": 4299,
      "slip": 4300,
      "tles": 4301,
      "vul": 4302,
      "yester": 4303,
      "ancy": 4304,
      "inward": 4305,
      "incen": 4306,
      "ored": 4307,
      "envious": 4308,
      "attempt": 4309,
      "toil": 4310,
      "sta": 4311,
      "nobility": 4312,
      "hap": 4313,
      "remor": 4314,
      "behavi": 4315,
      "lim": 4316,
      "weal": 4317,
      "deaf": 4318,
      "soms": 4319,
      "lying": 4320,
      "hercul": 4321,
      "peer": 4322,
      "exit": 4323,
      "exped": 4324,
      "perfection": 4325,
      "sacri": 4326,
      "venus": 4327,
      "thaniel": 4328,
      "marvel": 4329,
      "gild": 4330,
      "cies": 4331,
      "otherwise": 4332,
      "appointed": 4333,
      "nathaniel": 4334,
      "offers": 4335,
      "travell": 4336,
      "prevail": 4337,
      "pursue": 4338,
      "corre": 4339,
      "dramat": 4340,
      "bank": 4341,
      "higher": 4342,
      "cerimon": 4343,
      "played": 4344,
      "steward": 4345,
      "titinius": 4346,
      "attendant": 4347,
      "singing": 4348,
      "lucilius": 4349,
      "crying": 4350,
      "fields": 4351,
      "personæ": 4352,
      "skin": 4353,
      "basket": 4354,
      "torch": 4355,
      "varro": 4356,
      "duncan": 4357,
      "collat": 4358,
      "example": 4359,
      "tyranny": 4360,
      "stoop": 4361,
      "hercules": 4362,
      "dramatis": 4363,
      "ax": 4364,
      "bul": 4365,
      "jup": 4366,
      "nim": 4367,
      "oak": 4368,
      "pup": 4369,
      "slay": 4370,
      "vity": 4371,
      "wart": 4372,
      "”?": 4373,
      "orch": 4374,
      "hallow": 4375,
      "league": 4376,
      "redeem": 4377,
      "befall": 4378,
      "beheld": 4379,
      "chat": 4380,
      "load": 4381,
      "withdraw": 4382,
      "kets": 4383,
      "imes": 4384,
      "imprison": 4385,
      "verona": 4386,
      "ified": 4387,
      "conver": 4388,
      "conven": 4389,
      "conclus": 4390,
      "shield": 4391,
      "sill": 4392,
      "agre": 4393,
      "gilia": 4394,
      "whereon": 4395,
      "bru": 4396,
      "spurn": 4397,
      "dient": 4398,
      "dick": 4399,
      "tyr": 4400,
      "acy": 4401,
      "wrink": 4402,
      "cloak": 4403,
      "angels": 4404,
      "purchase": 4405,
      "everyone": 4406,
      "crest": 4407,
      "virgilia": 4408,
      "fortunate": 4409,
      "slept": 4410,
      "answered": 4411,
      "udge": 4412,
      "messengers": 4413,
      "gait": 4414,
      "pomp": 4415,
      "pense": 4416,
      "plent": 4417,
      "wedding": 4418,
      "shoot": 4419,
      "beasts": 4420,
      "persuade": 4421,
      "steps": 4422,
      "_within_": 4423,
      "_reads_": 4424,
      "fixed": 4425,
      "renowned": 4426,
      "circumstance": 4427,
      "determin": 4428,
      "handkerchief": 4429,
      "jupiter": 4430,
      "11": 4431,
      "bore": 4432,
      "lat": 4433,
      "oce": 4434,
      "pate": 4435,
      "sher": 4436,
      "sple": 4437,
      "yard": 4438,
      "increase": 4439,
      "sting": 4440,
      "haunt": 4441,
      "reve": 4442,
      "assa": 4443,
      "depend": 4444,
      "doms": 4445,
      "immedi": 4446,
      "goths": 4447,
      "holl": 4448,
      "butcher": 4449,
      "pocket": 4450,
      "contain": 4451,
      "conquest": 4452,
      "venom": 4453,
      "epi": 4454,
      "gling": 4455,
      "design": 4456,
      "blot": 4457,
      "monarch": 4458,
      "tyre": 4459,
      "absolute": 4460,
      "gress": 4461,
      "clean": 4462,
      "flat": 4463,
      "coron": 4464,
      "corpor": 4465,
      "younger": 4466,
      "steep": 4467,
      "learning": 4468,
      "confusion": 4469,
      "humours": 4470,
      "happily": 4471,
      "visible": 4472,
      "breaks": 4473,
      "ashes": 4474,
      "observe": 4475,
      "growing": 4476,
      "passed": 4477,
      "flame": 4478,
      "hairs": 4479,
      "frail": 4480,
      "addition": 4481,
      "resolved": 4482,
      "diomed": 4483,
      "possession": 4484,
      "montano": 4485,
      "fifth": 4486,
      "savage": 4487,
      "choler": 4488,
      "miserable": 4489,
      "seize": 4490,
      "scotland": 4491,
      "italy": 4492,
      "torture": 4493,
      "cranmer": 4494,
      "discretion": 4495,
      "sacrifi": 4496,
      "!’": 4497,
      "gardin": 4498,
      "rouse": 4499,
      "aries": 4500,
      "ating": 4501,
      "stal": 4502,
      "nox": 4503,
      "seldom": 4504,
      "asp": 4505,
      "dea": 4506,
      "deput": 4507,
      "detest": 4508,
      "soever": 4509,
      "dozen": 4510,
      "cob": 4511,
      "coast": 4512,
      "gob": 4513,
      "lap": 4514,
      "laus": 4515,
      "wills": 4516,
      "shal": 4517,
      "tial": 4518,
      "terror": 4519,
      "bohe": 4520,
      "whipped": 4521,
      "enterprise": 4522,
      "marshal": 4523,
      "provide": 4524,
      "likely": 4525,
      "shoulder": 4526,
      "spit": 4527,
      "spread": 4528,
      "derick": 4529,
      "services": 4530,
      "tooth": 4531,
      "graves": 4532,
      "strate": 4533,
      "nails": 4534,
      "heavi": 4535,
      "absent": 4536,
      "sweetly": 4537,
      "price": 4538,
      "tricks": 4539,
      "beside": 4540,
      "commod": 4541,
      "kindred": 4542,
      "waking": 4543,
      "offices": 4544,
      "visage": 4545,
      "trees": 4546,
      "kneels": 4547,
      "revenged": 4548,
      "aboard": 4549,
      "written": 4550,
      "obedient": 4551,
      "shown": 4552,
      "towns": 4553,
      "sixth": 4554,
      "governor": 4555,
      "continue": 4556,
      "alexas": 4557,
      "space": 4558,
      "suspic": 4559,
      "frederick": 4560,
      "siege": 4561,
      "saucy": 4562,
      "lennox": 4563,
      "consul": 4564,
      "rugby": 4565,
      "nephew": 4566,
      "immediate": 4567,
      "gardiner": 4568,
      "cise": 4569,
      "eg": 4570,
      "gid": 4571,
      "hous": 4572,
      "hrew": 4573,
      "tars": 4574,
      "ued": 4575,
      "yza": 4576,
      "zed": 4577,
      "inc": 4578,
      "oned": 4579,
      "ese": 4580,
      "nod": 4581,
      "reli": 4582,
      "liking": 4583,
      "locks": 4584,
      "dote": 4585,
      "cozen": 4586,
      "goose": 4587,
      "undo": 4588,
      "unity": 4589,
      "unkind": 4590,
      "hole": 4591,
      "ursu": 4592,
      "ordin": 4593,
      "shade": 4594,
      "tie": 4595,
      "suits": 4596,
      "pot": 4597,
      "caught": 4598,
      "compar": 4599,
      "theirs": 4600,
      "duked": 4601,
      "discharge": 4602,
      "dissem": 4603,
      "distance": 4604,
      "shoulders": 4605,
      "serpent": 4606,
      "blos": 4607,
      "timely": 4608,
      "audre": 4609,
      "audience": 4610,
      "parley": 4611,
      "redress": 4612,
      "feared": 4613,
      "blan": 4614,
      "petty": 4615,
      "beshrew": 4616,
      "palm": 4617,
      "rightly": 4618,
      "throng": 4619,
      "meantime": 4620,
      "fares": 4621,
      "beats": 4622,
      "gaze": 4623,
      "sions": 4624,
      "wisely": 4625,
      "commons": 4626,
      "pays": 4627,
      "suppose": 4628,
      "throws": 4629,
      "knocking": 4630,
      "famous": 4631,
      "resolve": 4632,
      "publius": 4633,
      "points": 4634,
      "directly": 4635,
      "disguised": 4636,
      "journey": 4637,
      "tribute": 4638,
      "ambassador": 4639,
      "inherit": 4640,
      "gaoler": 4641,
      "dionyza": 4642,
      "fisherman": 4643,
      "smith": 4644,
      "remorse": 4645,
      "ocean": 4646,
      "suspicion": 4647,
      "ursula": 4648,
      "dukedom": 4649,
      "audrey": 4650,
      "cass": 4651,
      "gers": 4652,
      "mic": 4653,
      "nought": 4654,
      "pull": 4655,
      "rhe": 4656,
      "rul": 4657,
      "sli": 4658,
      "scept": 4659,
      "tory": 4660,
      "error": 4661,
      "lling": 4662,
      "strew": 4663,
      "hey": 4664,
      "recomp": 4665,
      "robe": 4666,
      "cel": 4667,
      "irt": 4668,
      "livery": 4669,
      "loa": 4670,
      "soli": 4671,
      "dove": 4672,
      "rade": 4673,
      "lam": 4674,
      "estim": 4675,
      "amity": 4676,
      "peep": 4677,
      "feign": 4678,
      "manly": 4679,
      "tran": 4680,
      "shri": 4681,
      "shines": 4682,
      "exchange": 4683,
      "sies": 4684,
      "perpet": 4685,
      "outlaw": 4686,
      "saved": 4687,
      "seemed": 4688,
      "spy": 4689,
      "despis": 4690,
      "yellow": 4691,
      "traged": 4692,
      "rossill": 4693,
      "garland": 4694,
      "voy": 4695,
      "blue": 4696,
      "lights": 4697,
      "couldst": 4698,
      "curst": 4699,
      "curses": 4700,
      "begun": 4701,
      "players": 4702,
      "valer": 4703,
      "message": 4704,
      "needful": 4705,
      "antigon": 4706,
      "sounded": 4707,
      "thankful": 4708,
      "spoil": 4709,
      "running": 4710,
      "daily": 4711,
      "forced": 4712,
      "waters": 4713,
      "leads": 4714,
      "isabel": 4715,
      "guarded": 4716,
      "licate": 4717,
      "defy": 4718,
      "interest": 4719,
      "osric": 4720,
      "pitiful": 4721,
      "breaking": 4722,
      "actions": 4723,
      "fleet": 4724,
      "starve": 4725,
      "shadows": 4726,
      "liberal": 4727,
      "satisfaction": 4728,
      "drowned": 4729,
      "alexander": 4730,
      "jewels": 4731,
      "usurp": 4732,
      "fifty": 4733,
      "refuse": 4734,
      "naples": 4735,
      "troops": 4736,
      "instruct": 4737,
      "dorset": 4738,
      "conference": 4739,
      "menelaus": 4740,
      "rossillon": 4741,
      "antigonus": 4742,
      "),": 4743,
      "aunt": 4744,
      "bere": 4745,
      "bborn": 4746,
      "cros": 4747,
      "gad": 4748,
      "ghed": 4749,
      "ope": 4750,
      "oted": 4751,
      "rt": 4752,
      "vass": 4753,
      "thin": 4754,
      "thre": 4755,
      "threw": 4756,
      "erous": 4757,
      "inn": 4758,
      "theme": 4759,
      "item": 4760,
      "veins": 4761,
      "aspect": 4762,
      "chin": 4763,
      "forty": 4764,
      "forswear": 4765,
      "liqu": 4766,
      "likes": 4767,
      "week": 4768,
      "notice": 4769,
      "deci": 4770,
      "shapes": 4771,
      "manhood": 4772,
      "pole": 4773,
      "arts": 4774,
      "lete": 4775,
      "share": 4776,
      "moves": 4777,
      "wore": 4778,
      "proved": 4779,
      "greeks": 4780,
      "strumpet": 4781,
      "lesser": 4782,
      "parting": 4783,
      "tainted": 4784,
      "fearing": 4785,
      "bud": 4786,
      "newly": 4787,
      "lightning": 4788,
      "burst": 4789,
      "praises": 4790,
      "pleasing": 4791,
      "joys": 4792,
      "joyful": 4793,
      "youthful": 4794,
      "commands": 4795,
      "lately": 4796,
      "stubborn": 4797,
      "quarter": 4798,
      "shook": 4799,
      "succeed": 4800,
      "resolution": 4801,
      "breeding": 4802,
      "satisfy": 4803,
      "williams": 4804,
      "alarums": 4805,
      "florence": 4806,
      "supply": 4807,
      "imagination": 4808,
      "weapon": 4809,
      "government": 4810,
      "exceeding": 4811,
      "rebels": 4812,
      "invention": 4813,
      "privilege": 4814,
      "spleen": 4815,
      "bohemia": 4816,
      "sceptre": 4817,
      ":—": 4818,
      "aw": 4819,
      "ago": 4820,
      "afe": 4821,
      "dut": 4822,
      "hue": 4823,
      "hated": 4824,
      "oo": 4825,
      "push": 4826,
      "rut": 4827,
      "san": 4828,
      "tun": 4829,
      "wished": 4830,
      "eral": 4831,
      "ouched": 4832,
      "injury": 4833,
      "invisible": 4834,
      "ative": 4835,
      "hael": 4836,
      "forms": 4837,
      "imp": 4838,
      "immortal": 4839,
      "unken": 4840,
      "peev": 4841,
      "fever": 4842,
      "whate": 4843,
      "sugg": 4844,
      "contend": 4845,
      "contem": 4846,
      "conjure": 4847,
      "conrade": 4848,
      "extre": 4849,
      "moving": 4850,
      "compe": 4851,
      "muse": 4852,
      "ows": 4853,
      "greg": 4854,
      "foreign": 4855,
      "distur": 4856,
      "disease": 4857,
      "split": 4858,
      "fires": 4859,
      "serious": 4860,
      "swears": 4861,
      "ache": 4862,
      "access": 4863,
      "oppress": 4864,
      "guide": 4865,
      "grass": 4866,
      "corse": 4867,
      "falling": 4868,
      "compas": 4869,
      "compound": 4870,
      "reser": 4871,
      "patri": 4872,
      "create": 4873,
      "kills": 4874,
      "killing": 4875,
      "ireland": 4876,
      "value": 4877,
      "turning": 4878,
      "praised": 4879,
      "strongly": 4880,
      "surfeit": 4881,
      "climb": 4882,
      "promis": 4883,
      "burns": 4884,
      "beholding": 4885,
      "cowards": 4886,
      "granted": 4887,
      "easily": 4888,
      "effects": 4889,
      "grandam": 4890,
      "preparation": 4891,
      "corrupt": 4892,
      "instruments": 4893,
      "ceremony": 4894,
      "musician": 4895,
      "preserve": 4896,
      "couple": 4897,
      "chastity": 4898,
      "assurance": 4899,
      "scroop": 4900,
      "stretch": 4901,
      "rebellion": 4902,
      "clerk": 4903,
      "antiochus": 4904,
      "reproach": 4905,
      "behaviour": 4906,
      "sheriff": 4907,
      "giddy": 4908,
      "michael": 4909,
      "afeard": 4910,
      "peevish": 4911,
      "suggest": 4912,
      "aled": 4913,
      "alice": 4914,
      "chas": 4915,
      "mate": 4916,
      "nard": 4917,
      "pest": 4918,
      "rings": 4919,
      "twould": 4920,
      "enet": 4921,
      "stale": 4922,
      "seed": 4923,
      "requ": 4924,
      "removed": 4925,
      "beware": 4926,
      "lift": 4927,
      "deceive": 4928,
      "delicate": 4929,
      "rial": 4930,
      "adon": 4931,
      "super": 4932,
      "term": 4933,
      "conbridge": 4934,
      "cape": 4935,
      "scatter": 4936,
      "scrup": 4937,
      "works": 4938,
      "wot": 4939,
      "seeks": 4940,
      "ulph": 4941,
      "whereto": 4942,
      "span": 4943,
      "desp": 4944,
      "desir": 4945,
      "telling": 4946,
      "warri": 4947,
      "plains": 4948,
      "lting": 4949,
      "lays": 4950,
      "barnar": 4951,
      "blance": 4952,
      "helm": 4953,
      "flout": 4954,
      "drinking": 4955,
      "curtis": 4956,
      "keeping": 4957,
      "acts": 4958,
      "compare": 4959,
      "busy": 4960,
      "beds": 4961,
      "rescue": 4962,
      "senseless": 4963,
      "mothers": 4964,
      "antic": 4965,
      "sitting": 4966,
      "returned": 4967,
      "sisters": 4968,
      "pandulph": 4969,
      "corioles": 4970,
      "wooing": 4971,
      "drinks": 4972,
      "supposed": 4973,
      "ancest": 4974,
      "censure": 4975,
      "divor": 4976,
      "destru": 4977,
      "jaquenet": 4978,
      "conditions": 4979,
      "enforced": 4980,
      "threaten": 4981,
      "condemn": 4982,
      "condemned": 4983,
      "apollo": 4984,
      "musicians": 4985,
      "extremity": 4986,
      "eagle": 4987,
      "deceit": 4988,
      "thirty": 4989,
      "front": 4990,
      "appreh": 4991,
      "accident": 4992,
      "neglect": 4993,
      "pronounce": 4994,
      "current": 4995,
      "ugly": 4996,
      "rhyme": 4997,
      "conclusion": 4998,
      "gobbo": 4999,
      "sanct": 5000,
      "barnardo": 5001,
      "jaquenetta": 5002,
      "_she": 5003,
      "_dies": 5004,
      "cles": 5005,
      "cation": 5006,
      "couch": 5007,
      "ders": 5008,
      "gam": 5009,
      "jun": 5010,
      "pine": 5011,
      "pper": 5012,
      "rance": 5013,
      "ratch": 5014,
      "sbury": 5015,
      "arti": 5016,
      "stit": 5017,
      "stamp": 5018,
      "metal": 5019,
      "sex": 5020,
      "heap": 5021,
      "rear": 5022,
      "repose": 5023,
      "aloud": 5024,
      "noted": 5025,
      "defi": 5026,
      "soil": 5027,
      "rase": 5028,
      "rapier": 5029,
      "laughter": 5030,
      "advan": 5031,
      "advers": 5032,
      "contri": 5033,
      "bosoms": 5034,
      "scour": 5035,
      "scratch": 5036,
      "cannon": 5037,
      "proph": 5038,
      "process": 5039,
      "owl": 5040,
      "spec": 5041,
      "disper": 5042,
      "dian": 5043,
      "divin": 5044,
      "divide": 5045,
      "app": 5046,
      "appla": 5047,
      "brown": 5048,
      "juno": 5049,
      "ably": 5050,
      "retreat": 5051,
      "holding": 5052,
      "omit": 5053,
      "bleness": 5054,
      "mightst": 5055,
      "posses": 5056,
      "drunken": 5057,
      "fallen": 5058,
      "denmark": 5059,
      "placed": 5060,
      "bushy": 5061,
      "subdu": 5062,
      "sung": 5063,
      "strangely": 5064,
      "certainly": 5065,
      "burnt": 5066,
      "guards": 5067,
      "writing": 5068,
      "eleven": 5069,
      "qualities": 5070,
      "proceeding": 5071,
      "breeds": 5072,
      "conceal": 5073,
      "infant": 5074,
      "snatch": 5075,
      "blushing": 5076,
      "scope": 5077,
      "throats": 5078,
      "nymph": 5079,
      "eldest": 5080,
      "amazed": 5081,
      "digest": 5082,
      "descend": 5083,
      "hungry": 5084,
      "conclude": 5085,
      "slum": 5086,
      "intellig": 5087,
      "trespass": 5088,
      "beams": 5089,
      "nimble": 5090,
      "houses": 5091,
      "recompense": 5092,
      "destruction": 5093,
      "##": 5094,
      "apace": 5095,
      "bess": 5096,
      "dst": 5097,
      "dine": 5098,
      "ecen": 5099,
      "foun": 5100,
      "i_": 5101,
      "jer": 5102,
      "swo": 5103,
      "sday": 5104,
      "schol": 5105,
      "inate": 5106,
      "oracle": 5107,
      "ency": 5108,
      "stout": 5109,
      "stafford": 5110,
      "haw": 5111,
      "rebu": 5112,
      "rope": 5113,
      "forsake": 5114,
      "lions": 5115,
      "limit": 5116,
      "wet": 5117,
      "deck": 5118,
      "devo": 5119,
      "maecen": 5120,
      "verges": 5121,
      "willow": 5122,
      "poster": 5123,
      "terrible": 5124,
      "kingly": 5125,
      "siward": 5126,
      "moan": 5127,
      "box": 5128,
      "thereby": 5129,
      "mud": 5130,
      "canker": 5131,
      "herein": 5132,
      "working": 5133,
      "worms": 5134,
      "distress": 5135,
      "distemper": 5136,
      "dismiss": 5137,
      "approve": 5138,
      "apparent": 5139,
      "joan": 5140,
      "angle": 5141,
      "angers": 5142,
      "offences": 5143,
      "deaths": 5144,
      "cloth": 5145,
      "gnant": 5146,
      "headed": 5147,
      "phrase": 5148,
      "flint": 5149,
      "curs": 5150,
      "beget": 5151,
      "afternoon": 5152,
      "medit": 5153,
      "titles": 5154,
      "grievous": 5155,
      "courtes": 5156,
      "vaunt": 5157,
      "straw": 5158,
      "asked": 5159,
      "touches": 5160,
      "touching": 5161,
      "deserving": 5162,
      "commonwealth": 5163,
      "summon": 5164,
      "wanting": 5165,
      "mettle": 5166,
      "weakness": 5167,
      "quarre": 5168,
      "leaving": 5169,
      "secrets": 5170,
      "mutiny": 5171,
      "swain": 5172,
      "grandsire": 5173,
      "merely": 5174,
      "froth": 5175,
      "pierce": 5176,
      "virginity": 5177,
      "philoso": 5178,
      "treacherous": 5179,
      "contract": 5180,
      "shift": 5181,
      "clamation": 5182,
      "ragged": 5183,
      "scurvy": 5184,
      "orchard": 5185,
      "tarsus": 5186,
      "tragedy": 5187,
      "intelligence": 5188,
      "maecenas": 5189,
      "ack": 5190,
      "bing": 5191,
      "batter": 5192,
      "cine": 5193,
      "date": 5194,
      "egeon": 5195,
      "gage": 5196,
      "hatch": 5197,
      "imed": 5198,
      "lur": 5199,
      "nam": 5200,
      "rar": 5201,
      "vap": 5202,
      "thread": 5203,
      "endea": 5204,
      "ony": 5205,
      "level": 5206,
      "recon": 5207,
      "beque": 5208,
      "wipe": 5209,
      "liken": 5210,
      "weed": 5211,
      "altogether": 5212,
      "keen": 5213,
      "coin": 5214,
      "untimely": 5215,
      "mali": 5216,
      "peto": 5217,
      "manif": 5218,
      "manage": 5219,
      "suitor": 5220,
      "kingdoms": 5221,
      "conceive": 5222,
      "trench": 5223,
      "moral": 5224,
      "exile": 5225,
      "silly": 5226,
      "boats": 5227,
      "boots": 5228,
      "prodig": 5229,
      "agree": 5230,
      "likewise": 5231,
      "duce": 5232,
      "disci": 5233,
      "handsome": 5234,
      "austri": 5235,
      "abbe": 5236,
      "abused": 5237,
      "frank": 5238,
      "accursed": 5239,
      "opport": 5240,
      "sweetest": 5241,
      "closet": 5242,
      "taint": 5243,
      "settled": 5244,
      "trifle": 5245,
      "bargain": 5246,
      "tales": 5247,
      "phil": 5248,
      "engthen": 5249,
      "dearer": 5250,
      "curtain": 5251,
      "rights": 5252,
      "youngest": 5253,
      "resem": 5254,
      "bidding": 5255,
      "stocks": 5256,
      "player": 5257,
      "carries": 5258,
      "ize": 5259,
      "husbands": 5260,
      "matters": 5261,
      "game": 5262,
      "murderers": 5263,
      "craves": 5264,
      "careless": 5265,
      "careful": 5266,
      "comforts": 5267,
      "cription": 5268,
      "miracle": 5269,
      "doubtful": 5270,
      "yielded": 5271,
      "lark": 5272,
      "breathing": 5273,
      "instance": 5274,
      "knocks": 5275,
      "fantast": 5276,
      "training": 5277,
      "receiv": 5278,
      "turk": 5279,
      "christen": 5280,
      "cherish": 5281,
      "smoke": 5282,
      "wenches": 5283,
      "semblance": 5284,
      "evils": 5285,
      "piteous": 5286,
      "expectation": 5287,
      "loyalty": 5288,
      "pearl": 5289,
      "opposite": 5290,
      "society": 5291,
      "allegi": 5292,
      "rejoice": 5293,
      "beguile": 5294,
      "character": 5295,
      "sinews": 5296,
      "axe": 5297,
      "epilogue": 5298,
      "blossom": 5299,
      "solicit": 5300,
      "rutland": 5301,
      "adonis": 5302,
      "possessed": 5303,
      "endeav": 5304,
      "austria": 5305,
      "aed": 5306,
      "bone": 5307,
      "gap": 5308,
      "hare": 5309,
      "lorn": 5310,
      "oh": 5311,
      "pence": 5312,
      "plight": 5313,
      "smother": 5314,
      "text": 5315,
      "wre": 5316,
      "inch": 5317,
      "infer": 5318,
      "lls": 5319,
      "meth": 5320,
      "revi": 5321,
      "requite": 5322,
      "wil": 5323,
      "asion": 5324,
      "lily": 5325,
      "liament": 5326,
      "lodge": 5327,
      "decre": 5328,
      "ril": 5329,
      "riot": 5330,
      "gos": 5331,
      "trunk": 5332,
      "sheet": 5333,
      "owes": 5334,
      "discord": 5335,
      "path": 5336,
      "bras": 5337,
      "appoint": 5338,
      "county": 5339,
      "counsell": 5340,
      "abbess": 5341,
      "parliament": 5342,
      "rub": 5343,
      "bragg": 5344,
      "evermore": 5345,
      "everlasting": 5346,
      "barnard": 5347,
      "preced": 5348,
      "corne": 5349,
      "natures": 5350,
      "resign": 5351,
      "sandys": 5352,
      "dowry": 5353,
      "minster": 5354,
      "unders": 5355,
      "bottle": 5356,
      "swearing": 5357,
      "signify": 5358,
      "obtain": 5359,
      "walks": 5360,
      "sights": 5361,
      "sadness": 5362,
      "vanqu": 5363,
      "pandar": 5364,
      "captains": 5365,
      "writes": 5366,
      "sovereignty": 5367,
      "safely": 5368,
      "westminster": 5369,
      "softly": 5370,
      "mantua": 5371,
      "filled": 5372,
      "trembling": 5373,
      "ctive": 5374,
      "kinsmen": 5375,
      "hunts": 5376,
      "hunting": 5377,
      "imagine": 5378,
      "changed": 5379,
      "instantly": 5380,
      "spark": 5381,
      "roaring": 5382,
      "colle": 5383,
      "swelling": 5384,
      "treachery": 5385,
      "lodging": 5386,
      "funeral": 5387,
      "imperial": 5388,
      "ligence": 5389,
      "beggars": 5390,
      "convenient": 5391,
      "perpetual": 5392,
      "gadshill": 5393,
      "decius": 5394,
      "extreme": 5395,
      "acknow": 5396,
      "prodigal": 5397,
      "abbey": 5398,
      "philario": 5399,
      "allegiance": 5400,
      "barnardine": 5401,
      "afoot": 5402,
      "bation": 5403,
      "cence": 5404,
      "cudge": 5405,
      "fang": 5406,
      "hound": 5407,
      "iance": 5408,
      "iety": 5409,
      "mish": 5410,
      "nut": 5411,
      "ray": 5412,
      "rene": 5413,
      "touched": 5414,
      "inted": 5415,
      "stum": 5416,
      "sext": 5417,
      "itable": 5418,
      "heath": 5419,
      "require": 5420,
      "became": 5421,
      "roof": 5422,
      "forlorn": 5423,
      "lier": 5424,
      "keys": 5425,
      "river": 5426,
      "imit": 5427,
      "impress": 5428,
      "covery": 5429,
      "coats": 5430,
      "unjust": 5431,
      "unseen": 5432,
      "howe": 5433,
      "ury": 5434,
      "amond": 5435,
      "amends": 5436,
      "pow": 5437,
      "tax": 5438,
      "taver": 5439,
      "consum": 5440,
      "quity": 5441,
      "shrie": 5442,
      "exer": 5443,
      "upright": 5444,
      "thane": 5445,
      "marvell": 5446,
      "dispose": 5447,
      "diseas": 5448,
      "dissol": 5449,
      "bran": 5450,
      "plebe": 5451,
      "babes": 5452,
      "mistrust": 5453,
      "stery": 5454,
      "aph": 5455,
      "jot": 5456,
      "abus": 5457,
      "riches": 5458,
      "accent": 5459,
      "madman": 5460,
      "setting": 5461,
      "tried": 5462,
      "talking": 5463,
      "nobleman": 5464,
      "horrible": 5465,
      "stole": 5466,
      "ceived": 5467,
      "harbour": 5468,
      "hourly": 5469,
      "painting": 5470,
      "doublet": 5471,
      "vanish": 5472,
      "fourteen": 5473,
      "royalty": 5474,
      "lads": 5475,
      "prosperous": 5476,
      "rises": 5477,
      "rising": 5478,
      "cornets": 5479,
      "elements": 5480,
      "pitied": 5481,
      "marching": 5482,
      "suffered": 5483,
      "flattery": 5484,
      "heirs": 5485,
      "neighbours": 5486,
      "dainty": 5487,
      "hunger": 5488,
      "devour": 5489,
      "innocence": 5490,
      "shrewsbury": 5491,
      "guiltless": 5492,
      "determine": 5493,
      "suffice": 5494,
      "volsces": 5495,
      "experience": 5496,
      "capable": 5497,
      "vulgar": 5498,
      "yesterday": 5499,
      "collatine": 5500,
      "deputy": 5501,
      "despise": 5502,
      "likeness": 5503,
      "discipl": 5504,
      "gird": 5505,
      "jes": 5506,
      "tush": 5507,
      "vau": 5508,
      "wain": 5509,
      "andal": 5510,
      "atic": 5511,
      "hem": 5512,
      "recre": 5513,
      "chop": 5514,
      "web": 5515,
      "aloft": 5516,
      "altar": 5517,
      "losing": 5518,
      "solan": 5519,
      "dole": 5520,
      "imped": 5521,
      "coal": 5522,
      "cook": 5523,
      "unkindness": 5524,
      "ourself": 5525,
      "alliance": 5526,
      "verty": 5527,
      "herd": 5528,
      "shakes": 5529,
      "adul": 5530,
      "nept": 5531,
      "fawn": 5532,
      "pox": 5533,
      "poverty": 5534,
      "conjur": 5535,
      "morous": 5536,
      "extend": 5537,
      "explo": 5538,
      "model": 5539,
      "bowel": 5540,
      "shel": 5541,
      "goods": 5542,
      "teth": 5543,
      "peri": 5544,
      "scandal": 5545,
      "mary": 5546,
      "umes": 5547,
      "seeking": 5548,
      "gic": 5549,
      "dukes": 5550,
      "forehead": 5551,
      "affright": 5552,
      "diet": 5553,
      "muster": 5554,
      "bait": 5555,
      "bald": 5556,
      "bache": 5557,
      "rows": 5558,
      "desired": 5559,
      "stray": 5560,
      "nail": 5561,
      "answers": 5562,
      "tellus": 5563,
      "heav": 5564,
      "merc": 5565,
      "nightly": 5566,
      "betimes": 5567,
      "cally": 5568,
      "lief": 5569,
      "courses": 5570,
      "longing": 5571,
      "ruled": 5572,
      "putting": 5573,
      "capti": 5574,
      "sensible": 5575,
      "stool": 5576,
      "suff": 5577,
      "tempor": 5578,
      "presents": 5579,
      "forthwith": 5580,
      "grieves": 5581,
      "strict": 5582,
      "backward": 5583,
      "subscri": 5584,
      "beating": 5585,
      "soundly": 5586,
      "ventidius": 5587,
      "murdered": 5588,
      "cram": 5589,
      "tingu": 5590,
      "walter": 5591,
      "promises": 5592,
      "sadly": 5593,
      "pipe": 5594,
      "constancy": 5595,
      "bounds": 5596,
      "stuck": 5597,
      "eaten": 5598,
      "wheel": 5599,
      "wonderful": 5600,
      "offered": 5601,
      "ancing": 5602,
      "plucked": 5603,
      "stirring": 5604,
      "direction": 5605,
      "reply": 5606,
      "troubles": 5607,
      "feeds": 5608,
      "hideous": 5609,
      "bonds": 5610,
      "patiently": 5611,
      "varlet": 5612,
      "middle": 5613,
      "sailor": 5614,
      "griffi": 5615,
      "breathed": 5616,
      "frowns": 5617,
      "ministers": 5618,
      "listen": 5619,
      "wager": 5620,
      "miseries": 5621,
      "balls": 5622,
      "wakes": 5623,
      "punishment": 5624,
      "carrier": 5625,
      "rumour": 5626,
      "merrily": 5627,
      "sicilia": 5628,
      "simpcox": 5629,
      "injuries": 5630,
      "expedition": 5631,
      "religious": 5632,
      "cassandra": 5633,
      "valeria": 5634,
      "gregory": 5635,
      "cornelius": 5636,
      "plebeians": 5637,
      "solanio": 5638,
      "neptune": 5639,
      "griffith": 5640,
      "12": 5641,
      ";—": 5642,
      "_music": 5643,
      "awe": 5644,
      "bin": 5645,
      "bate": 5646,
      "eats": 5647,
      "gna": 5648,
      "hates": 5649,
      "ime": 5650,
      "ival": 5651,
      "mity": 5652,
      "omen": 5653,
      "pon": 5654,
      "pse": 5655,
      "sar": 5656,
      "scap": 5657,
      "samp": 5658,
      "vast": 5659,
      "zounds": 5660,
      "tho": 5661,
      "infection": 5662,
      "insol": 5663,
      "thebes": 5664,
      "atta": 5665,
      "chest": 5666,
      "charms": 5667,
      "road": 5668,
      "rocks": 5669,
      "eder": 5670,
      "ldo": 5671,
      "notes": 5672,
      "notwith": 5673,
      "sober": 5674,
      "domin": 5675,
      "rack": 5676,
      "hose": 5677,
      "butter": 5678,
      "amend": 5679,
      "amorous": 5680,
      "ida": 5681,
      "tified": 5682,
      "mantle": 5683,
      "fac": 5684,
      "superf": 5685,
      "polit": 5686,
      "tap": 5687,
      "converse": 5688,
      "consequ": 5689,
      "trun": 5690,
      "shores": 5691,
      "shea": 5692,
      "cts": 5693,
      "indign": 5694,
      "indiffer": 5695,
      "sayst": 5696,
      "ular": 5697,
      "ulate": 5698,
      "diest": 5699,
      "division": 5700,
      "cially": 5701,
      "file": 5702,
      "navar": 5703,
      "embra": 5704,
      "hasty": 5705,
      "prays": 5706,
      "prime": 5707,
      "courteous": 5708,
      "burial": 5709,
      "bliss": 5710,
      "household": 5711,
      "purge": 5712,
      "purple": 5713,
      "claimed": 5714,
      "commends": 5715,
      "cursions": 5716,
      "reasonable": 5717,
      "playing": 5718,
      "steed": 5719,
      "thren": 5720,
      "silk": 5721,
      "confeder": 5722,
      "minius": 5723,
      "hedge": 5724,
      "leonat": 5725,
      "leonine": 5726,
      "faulconbridge": 5727,
      "crab": 5728,
      "obsc": 5729,
      "surpr": 5730,
      "deserv": 5731,
      "penit": 5732,
      "frenchman": 5733,
      "passes": 5734,
      "persons": 5735,
      "relent": 5736,
      "relish": 5737,
      "flaminius": 5738,
      "corner": 5739,
      "election": 5740,
      "scorns": 5741,
      "sufferance": 5742,
      "moder": 5743,
      "consort": 5744,
      "bondage": 5745,
      "mourning": 5746,
      "execute": 5747,
      "cruelty": 5748,
      "bona": 5749,
      "kneeling": 5750,
      "necessary": 5751,
      "greeting": 5752,
      "conqueror": 5753,
      "strokes": 5754,
      "cuckoo": 5755,
      "guests": 5756,
      "narrow": 5757,
      "quake": 5758,
      "bootless": 5759,
      "concerns": 5760,
      "strangers": 5761,
      "spotted": 5762,
      "peasant": 5763,
      "corporal": 5764,
      "sacrifice": 5765,
      "blanche": 5766,
      "voyage": 5767,
      "vassal": 5768,
      "scruple": 5769,
      "divorce": 5770,
      "prophesy": 5771,
      "slumber": 5772,
      "fountain": 5773,
      "bowels": 5774,
      "sampson": 5775,
      "notwithstanding": 5776,
      "superflu": 5777,
      "navarre": 5778,
      "_here": 5779,
      "bits": 5780,
      "dru": 5781,
      "dangers": 5782,
      "dancing": 5783,
      "fty": 5784,
      "glow": 5785,
      "gorge": 5786,
      "jou": 5787,
      "nup": 5788,
      "nigh": 5789,
      "oman": 5790,
      "pang": 5791,
      "patter": 5792,
      "rend": 5793,
      "rites": 5794,
      "wond": 5795,
      "wreck": 5796,
      "thra": 5797,
      "inte": 5798,
      "infirm": 5799,
      "enor": 5800,
      "ened": 5801,
      "enmity": 5802,
      "issu": 5803,
      "ision": 5804,
      "espe": 5805,
      "escape": 5806,
      "ators": 5807,
      "nobody": 5808,
      "hamed": 5809,
      "regent": 5810,
      "ingrat": 5811,
      "bead": 5812,
      "ashamed": 5813,
      "chery": 5814,
      "forc": 5815,
      "wea": 5816,
      "entrance": 5817,
      "history": 5818,
      "raging": 5819,
      "ravish": 5820,
      "lame": 5821,
      "lamour": 5822,
      "idi": 5823,
      "nel": 5824,
      "sugar": 5825,
      "sustain": 5826,
      "ante": 5827,
      "shining": 5828,
      "sive": 5829,
      "viii": 5830,
      "vilius": 5831,
      "perni": 5832,
      "perjury": 5833,
      "scal": 5834,
      "sails": 5835,
      "procure": 5836,
      "proclamation": 5837,
      "saye": 5838,
      "dismal": 5839,
      "pledge": 5840,
      "dict": 5841,
      "divers": 5842,
      "diamond": 5843,
      "mustard": 5844,
      "servilius": 5845,
      "mistook": 5846,
      "mischance": 5847,
      "lucy": 5848,
      "naldo": 5849,
      "brethren": 5850,
      "gust": 5851,
      "garment": 5852,
      "tsy": 5853,
      "presume": 5854,
      "evening": 5855,
      "curtsy": 5856,
      "tents": 5857,
      "compli": 5858,
      "restra": 5859,
      "banks": 5860,
      "stops": 5861,
      "stolen": 5862,
      "sleeve": 5863,
      "enchant": 5864,
      "waves": 5865,
      "surety": 5866,
      "presented": 5867,
      "harvest": 5868,
      "attends": 5869,
      "backs": 5870,
      "chased": 5871,
      "nearer": 5872,
      "villainous": 5873,
      "belmont": 5874,
      "wearing": 5875,
      "paint": 5876,
      "sym": 5877,
      "phoen": 5878,
      "cule": 5879,
      "pomfret": 5880,
      "beseem": 5881,
      "vanity": 5882,
      "plainly": 5883,
      "favoured": 5884,
      "gallows": 5885,
      "droop": 5886,
      "speeches": 5887,
      "mounted": 5888,
      "severally": 5889,
      "mocked": 5890,
      "woods": 5891,
      "beastly": 5892,
      "divided": 5893,
      "albans": 5894,
      "destiny": 5895,
      "swagger": 5896,
      "circle": 5897,
      "tribune": 5898,
      "persuaded": 5899,
      "beneath": 5900,
      "intents": 5901,
      "driven": 5902,
      "greece": 5903,
      "windows": 5904,
      "mountains": 5905,
      "tutor": 5906,
      "profession": 5907,
      "disguise": 5908,
      "affected": 5909,
      "loathsome": 5910,
      "jured": 5911,
      "sufficient": 5912,
      "prophet": 5913,
      "control": 5914,
      "infected": 5915,
      "mongst": 5916,
      "beaufort": 5917,
      "pantino": 5918,
      "reckoning": 5919,
      "correction": 5920,
      "eglamour": 5921,
      "transport": 5922,
      "despised": 5923,
      "bereft": 5924,
      "scholar": 5925,
      "opportunity": 5926,
      "tavern": 5927,
      "diseases": 5928,
      "jesu": 5929,
      "pernicious": 5930,
      "_gives": 5931,
      "_giving": 5932,
      "cæ": 5933,
      "dan": 5934,
      "gor": 5935,
      "gour": 5936,
      "ky": 5937,
      "las": 5938,
      "mouse": 5939,
      "mire": 5940,
      "nun": 5941,
      "ples": 5942,
      "sam": 5943,
      "tum": 5944,
      "vation": 5945,
      "infa": 5946,
      "inbras": 5947,
      "arra": 5948,
      "stabs": 5949,
      "nobler": 5950,
      "hale": 5951,
      "hack": 5952,
      "lewd": 5953,
      "rein": 5954,
      "bethink": 5955,
      "robes": 5956,
      "rogues": 5957,
      "lihood": 5958,
      "lids": 5959,
      "defect": 5960,
      "deposed": 5961,
      "dover": 5962,
      "maker": 5963,
      "mamill": 5964,
      "raw": 5965,
      "rape": 5966,
      "verses": 5967,
      "tiger": 5968,
      "peius": 5969,
      "ending": 5970,
      "quis": 5971,
      "cawd": 5972,
      "morris": 5973,
      "exclaim": 5974,
      "excursions": 5975,
      "sith": 5976,
      "mocks": 5977,
      "bows": 5978,
      "vied": 5979,
      "comfor": 5980,
      "outrage": 5981,
      "sap": 5982,
      "worser": 5983,
      "procule": 5984,
      "ulous": 5985,
      "distin": 5986,
      "baby": 5987,
      "block": 5988,
      "hearse": 5989,
      "queens": 5990,
      "laying": 5991,
      "priz": 5992,
      "fortinbras": 5993,
      "braken": 5994,
      "named": 5995,
      "showing": 5996,
      "dressed": 5997,
      "caps": 5998,
      "charg": 5999,
      "everywhere": 6000,
      "dragon": 6001,
      "complete": 6002,
      "sands": 6003,
      "carriage": 6004,
      "harmony": 6005,
      "chosen": 6006,
      "confident": 6007,
      "hush": 6008,
      "hangman": 6009,
      "powerful": 6010,
      "campeius": 6011,
      "worthiness": 6012,
      "salute": 6013,
      "puiss": 6014,
      "champ": 6015,
      "obli": 6016,
      "hume": 6017,
      "sickly": 6018,
      "deserts": 6019,
      "ranks": 6020,
      "leading": 6021,
      "trusty": 6022,
      "miles": 6023,
      "remembered": 6024,
      "yielding": 6025,
      "abomin": 6026,
      "blessings": 6027,
      "skull": 6028,
      "hinder": 6029,
      "moonshine": 6030,
      "flattering": 6031,
      "joints": 6032,
      "beginning": 6033,
      "added": 6034,
      "understanding": 6035,
      "sailors": 6036,
      "briefly": 6037,
      "continu": 6038,
      "delights": 6039,
      "departure": 6040,
      "urious": 6041,
      "aloof": 6042,
      "imagin": 6043,
      "montjoy": 6044,
      "dwells": 6045,
      "changes": 6046,
      "companions": 6047,
      "corrupted": 6048,
      "employment": 6049,
      "abhorson": 6050,
      "crows": 6051,
      "medicine": 6052,
      "lists": 6053,
      "filthy": 6054,
      "prevented": 6055,
      "style": 6056,
      "invite": 6057,
      "apprehen": 6058,
      "affliction": 6059,
      "thrift": 6060,
      "shroud": 6061,
      "pilgri": 6062,
      "gazing": 6063,
      "barbarous": 6064,
      "mouldy": 6065,
      "candle": 6066,
      "achieve": 6067,
      "gilded": 6068,
      "coronation": 6069,
      "rheum": 6070,
      "estimation": 6071,
      "duties": 6072,
      "disturb": 6073,
      "pestil": 6074,
      "ancestors": 6075,
      "rebuke": 6076,
      "boatswain": 6077,
      "gossi": 6078,
      "precedent": 6079,
      "bachelor": 6080,
      "merciful": 6081,
      "indifferent": 6082,
      "obscure": 6083,
      "nuptial": 6084,
      "ingratitude": 6085,
      "infamy": 6086,
      "mamillius": 6087,
      "cawdor": 6088,
      "proculeius": 6089,
      "brakenbury": 6090,
      "_o": 6091,
      "_item": 6092,
      "card": 6093,
      "cull": 6094,
      "ckets": 6095,
      "drow": 6096,
      "fant": 6097,
      "fts": 6098,
      "flock": 6099,
      "gan": 6100,
      "lof": 6101,
      "latter": 6102,
      "lute": 6103,
      "mand": 6104,
      "mute": 6105,
      "pan": 6106,
      "pind": 6107,
      "pars": 6108,
      "squire": 6109,
      "tard": 6110,
      "tween": 6111,
      "wand": 6112,
      "’,": 6113,
      "thidi": 6114,
      "anno": 6115,
      "angi": 6116,
      "anjou": 6117,
      "ensu": 6118,
      "artic": 6119,
      "tos": 6120,
      "stam": 6121,
      "sters": 6122,
      "melo": 6123,
      "haven": 6124,
      "separ": 6125,
      "itaph": 6126,
      "reproof": 6127,
      "forman": 6128,
      "celest": 6129,
      "alty": 6130,
      "utmost": 6131,
      "dep": 6132,
      "soe": 6133,
      "impatient": 6134,
      "cot": 6135,
      "coil": 6136,
      "rages": 6137,
      "laz": 6138,
      "lace": 6139,
      "allay": 6140,
      "aments": 6141,
      "shames": 6142,
      "female": 6143,
      "mankind": 6144,
      "sullen": 6145,
      "pope": 6146,
      "print": 6147,
      "terr": 6148,
      "constra": 6149,
      "quint": 6150,
      "upbra": 6151,
      "mote": 6152,
      "sheets": 6153,
      "performan": 6154,
      "mum": 6155,
      "outs": 6156,
      "scarus": 6157,
      "iot": 6158,
      "entered": 6159,
      "moreover": 6160,
      "marble": 6161,
      "knowest": 6162,
      "ills": 6163,
      "epitaph": 6164,
      "dispos": 6165,
      "discontent": 6166,
      "afar": 6167,
      "brass": 6168,
      "tish": 6169,
      "description": 6170,
      "hire": 6171,
      "counted": 6172,
      "abate": 6173,
      "franch": 6174,
      "ornament": 6175,
      "bully": 6176,
      "built": 6177,
      "longs": 6178,
      "ruth": 6179,
      "ruffi": 6180,
      "fling": 6181,
      "pursuit": 6182,
      "pton": 6183,
      "finding": 6184,
      "charitable": 6185,
      "restore": 6186,
      "stayed": 6187,
      "meddle": 6188,
      "bringing": 6189,
      "bandit": 6190,
      "bells": 6191,
      "cambridge": 6192,
      "kissed": 6193,
      "fighting": 6194,
      "appeal": 6195,
      "speedy": 6196,
      "walking": 6197,
      "survey": 6198,
      "crime": 6199,
      "crimes": 6200,
      "ladder": 6201,
      "milford": 6202,
      "reports": 6203,
      "shoe": 6204,
      "shoes": 6205,
      "wasted": 6206,
      "wolves": 6207,
      "balm": 6208,
      "stirs": 6209,
      "anointed": 6210,
      "provoke": 6211,
      "churlish": 6212,
      "harmless": 6213,
      "swim": 6214,
      "carrying": 6215,
      "treasons": 6216,
      "executed": 6217,
      "continent": 6218,
      "provok": 6219,
      "mannerly": 6220,
      "debate": 6221,
      "waiting": 6222,
      "dealing": 6223,
      "judas": 6224,
      "persuasion": 6225,
      "grossly": 6226,
      "winged": 6227,
      "legions": 6228,
      "mingled": 6229,
      "drift": 6230,
      "bending": 6231,
      "whispers": 6232,
      "tyrann": 6233,
      "pillow": 6234,
      "errand": 6235,
      "lungs": 6236,
      "stabbed": 6237,
      "statue": 6238,
      "tyrrel": 6239,
      "revels": 6240,
      "commodity": 6241,
      "immediately": 6242,
      "specta": 6243,
      "wilful": 6244,
      "acknowledge": 6245,
      "exercise": 6246,
      "marvellous": 6247,
      "leonatus": 6248,
      "integr": 6249,
      "phoenix": 6250,
      "pindarus": 6251,
      "thidias": 6252,
      "angiers": 6253,
      "articles": 6254,
      "celestial": 6255,
      "afore": 6256,
      "coff": 6257,
      "glo": 6258,
      "gest": 6259,
      "harms": 6260,
      "liness": 6261,
      "mard": 6262,
      "mers": 6263,
      "uff": 6264,
      "vine": 6265,
      "”;": 6266,
      "anim": 6267,
      "angling": 6268,
      "toe": 6269,
      "toy": 6270,
      "tock": 6271,
      "toad": 6272,
      "topas": 6273,
      "meed": 6274,
      "metellus": 6275,
      "noblest": 6276,
      "nobleness": 6277,
      "itch": 6278,
      "heinous": 6279,
      "leaf": 6280,
      "leather": 6281,
      "reap": 6282,
      "beit": 6283,
      "asc": 6284,
      "assay": 6285,
      "chr": 6286,
      "chose": 6287,
      "mystery": 6288,
      "aye": 6289,
      "lipp": 6290,
      "alms": 6291,
      "ridge": 6292,
      "impatience": 6293,
      "ravis": 6294,
      "raised": 6295,
      "lychor": 6296,
      "iden": 6297,
      "pel": 6298,
      "advis": 6299,
      "address": 6300,
      "neat": 6301,
      "tages": 6302,
      "excess": 6303,
      "expense": 6304,
      "mop": 6305,
      "thereto": 6306,
      "performed": 6307,
      "perjured": 6308,
      "inder": 6309,
      "indire": 6310,
      "safer": 6311,
      "canidius": 6312,
      "prover": 6313,
      "giant": 6314,
      "sayest": 6315,
      "dishonoured": 6316,
      "distingu": 6317,
      "somewhat": 6318,
      "bris": 6319,
      "bagot": 6320,
      "derby": 6321,
      "glance": 6322,
      "gentleness": 6323,
      "lux": 6324,
      "apply": 6325,
      "april": 6326,
      "grain": 6327,
      "abund": 6328,
      "fray": 6329,
      "richer": 6330,
      "ached": 6331,
      "oppose": 6332,
      "wring": 6333,
      "sweeter": 6334,
      "calling": 6335,
      "retires": 6336,
      "oughs": 6337,
      "preva": 6338,
      "pregnant": 6339,
      "helps": 6340,
      "horrid": 6341,
      "welkin": 6342,
      "caphis": 6343,
      "clap": 6344,
      "clamour": 6345,
      "cris": 6346,
      "cero": 6347,
      "created": 6348,
      "minded": 6349,
      "griev": 6350,
      "fellowship": 6351,
      "confine": 6352,
      "pleases": 6353,
      "minutes": 6354,
      "shameful": 6355,
      "worthiest": 6356,
      "cousins": 6357,
      "publ": 6358,
      "drawing": 6359,
      "flying": 6360,
      "marked": 6361,
      "returns": 6362,
      "growth": 6363,
      "sinane": 6364,
      "penance": 6365,
      "coloured": 6366,
      "leaden": 6367,
      "julius": 6368,
      "brid": 6369,
      "dreamt": 6370,
      "german": 6371,
      "boldly": 6372,
      "suitors": 6373,
      "profane": 6374,
      "interpret": 6375,
      "velvet": 6376,
      "excellence": 6377,
      "counsels": 6378,
      "laughed": 6379,
      "passions": 6380,
      "joined": 6381,
      "respects": 6382,
      "reynaldo": 6383,
      "rupt": 6384,
      "grove": 6385,
      "cheerful": 6386,
      "stealing": 6387,
      "mutual": 6388,
      "songs": 6389,
      "scarcely": 6390,
      "holp": 6391,
      "bestowed": 6392,
      "dunsinane": 6393,
      "during": 6394,
      "demands": 6395,
      "violence": 6396,
      "bounteous": 6397,
      "starts": 6398,
      "corruption": 6399,
      "deceiv": 6400,
      "tubal": 6401,
      "bridegroom": 6402,
      "ballad": 6403,
      "ceremon": 6404,
      "quali": 6405,
      "crooked": 6406,
      "rushes": 6407,
      "ambassadors": 6408,
      "coxcomb": 6409,
      "repeat": 6410,
      "beauties": 6411,
      "curious": 6412,
      "multitude": 6413,
      "observance": 6414,
      "linen": 6415,
      "stake": 6416,
      "liquor": 6417,
      "compassion": 6418,
      "patricians": 6419,
      "article": 6420,
      "devotion": 6421,
      "quarrels": 6422,
      "reconci": 6423,
      "bequeath": 6424,
      "manifest": 6425,
      "sexton": 6426,
      "adulter": 6427,
      "period": 6428,
      "consequence": 6429,
      "especially": 6430,
      "cæsar": 6431,
      "lofty": 6432,
      "parson": 6433,
      "annoy": 6434,
      "integrity": 6435,
      "mardian": 6436,
      "lychorida": 6437,
      "?’": 6438,
      "_knocking": 6439,
      "ame": 6440,
      "dart": 6441,
      "dash": 6442,
      "ec": 6443,
      "elo": 6444,
      "eous": 6445,
      "emed": 6446,
      "echo": 6447,
      "egg": 6448,
      "ebb": 6449,
      "emul": 6450,
      "fest": 6451,
      "fted": 6452,
      "gloves": 6453,
      "hides": 6454,
      "ict": 6455,
      "iens": 6456,
      "lings": 6457,
      "mun": 6458,
      "pple": 6459,
      "rou": 6460,
      "rue": 6461,
      "slo": 6462,
      "tart": 6463,
      "uch": 6464,
      "thigh": 6465,
      "insu": 6466,
      "inct": 6467,
      "attent": 6468,
      "lleng": 6469,
      "haught": 6470,
      "semb": 6471,
      "sepul": 6472,
      "heal": 6473,
      "lechery": 6474,
      "relig": 6475,
      "ingrate": 6476,
      "beguil": 6477,
      "vein": 6478,
      "veyor": 6479,
      "chie": 6480,
      "mytil": 6481,
      "iring": 6482,
      "limb": 6483,
      "uts": 6484,
      "deth": 6485,
      "degre": 6486,
      "deformed": 6487,
      "devised": 6488,
      "doting": 6489,
      "rival": 6490,
      "cole": 6491,
      "covet": 6492,
      "uni": 6493,
      "magn": 6494,
      "race": 6495,
      "holi": 6496,
      "hook": 6497,
      "urged": 6498,
      "ampton": 6499,
      "amiens": 6500,
      "tile": 6501,
      "tick": 6502,
      "tiers": 6503,
      "geons": 6504,
      "faster": 6505,
      "poll": 6506,
      "taunt": 6507,
      "conta": 6508,
      "convers": 6509,
      "quess": 6510,
      "quaint": 6511,
      "antenor": 6512,
      "cau": 6513,
      "exce": 6514,
      "mocking": 6515,
      "moiety": 6516,
      "boon": 6517,
      "compa": 6518,
      "comment": 6519,
      "outlive": 6520,
      "scant": 6521,
      "marin": 6522,
      "prodi": 6523,
      "project": 6524,
      "produce": 6525,
      "proclaimed": 6526,
      "likelihood": 6527,
      "whereat": 6528,
      "greed": 6529,
      "dismay": 6530,
      "disorder": 6531,
      "pavi": 6532,
      "branch": 6533,
      "baw": 6534,
      "desol": 6535,
      "descent": 6536,
      "luce": 6537,
      "fulvia": 6538,
      "accomp": 6539,
      "partner": 6540,
      "sweets": 6541,
      "truer": 6542,
      "buds": 6543,
      "cleomen": 6544,
      "brag": 6545,
      "cesario": 6546,
      "besie": 6547,
      "captive": 6548,
      "curb": 6549,
      "drawer": 6550,
      "restored": 6551,
      "resist": 6552,
      "highest": 6553,
      "silken": 6554,
      "overthrow": 6555,
      "udent": 6556,
      "pleaseth": 6557,
      "prais": 6558,
      "substit": 6559,
      "custo": 6560,
      "happier": 6561,
      "minion": 6562,
      "challeng": 6563,
      "visor": 6564,
      "falsely": 6565,
      "calchas": 6566,
      "linger": 6567,
      "thousands": 6568,
      "cities": 6569,
      "worthless": 6570,
      "fights": 6571,
      "puff": 6572,
      "daring": 6573,
      "cradle": 6574,
      "majest": 6575,
      "survi": 6576,
      "revenue": 6577,
      "battles": 6578,
      "knavery": 6579,
      "airs": 6580,
      "yields": 6581,
      "deeply": 6582,
      "profound": 6583,
      "skir": 6584,
      "wedded": 6585,
      "whet": 6586,
      "philipp": 6587,
      "confession": 6588,
      "lucullus": 6589,
      "feasts": 6590,
      "succour": 6591,
      "hymen": 6592,
      "proceedings": 6593,
      "resolv": 6594,
      "labouring": 6595,
      "witchcraft": 6596,
      "tempted": 6597,
      "papers": 6598,
      "snare": 6599,
      "snout": 6600,
      "storms": 6601,
      "grandfather": 6602,
      "support": 6603,
      "debts": 6604,
      "thorough": 6605,
      "frowning": 6606,
      "priests": 6607,
      "intended": 6608,
      "figures": 6609,
      "occasions": 6610,
      "frost": 6611,
      "fifteen": 6612,
      "changing": 6613,
      "dedic": 6614,
      "empire": 6615,
      "conquered": 6616,
      "savour": 6617,
      "francisco": 6618,
      "allowed": 6619,
      "rascals": 6620,
      "employed": 6621,
      "advanced": 6622,
      "fruitful": 6623,
      "egyp": 6624,
      "apartment": 6625,
      "eyed": 6626,
      "extremes": 6627,
      "function": 6628,
      "feature": 6629,
      "practise": 6630,
      "arriv": 6631,
      "square": 6632,
      "incensed": 6633,
      "hallowed": 6634,
      "agreed": 6635,
      "apprehend": 6636,
      "endeavour": 6637,
      "heaviness": 6638,
      "politic": 6639,
      "surprised": 6640,
      "infirmity": 6641,
      "pilgrimage": 6642,
      "performance": 6643,
      "mopsa": 6644,
      "sepulch": 6645,
      "mytilene": 6646,
      "degrees": 6647,
      "cleomenes": 6648,
      "_kneels": 6649,
      "_kneeling": 6650,
      "avaunt": 6651,
      "bber": 6652,
      "bonius": 6653,
      "clay": 6654,
      "dried": 6655,
      "ea": 6656,
      "ege": 6657,
      "fence": 6658,
      "gau": 6659,
      "gery": 6660,
      "gloss": 6661,
      "gilt": 6662,
      "nuncle": 6663,
      "pounds": 6664,
      "rus": 6665,
      "rout": 6666,
      "rated": 6667,
      "trow": 6668,
      "torn": 6669,
      "twin": 6670,
      "uary": 6671,
      "wave": 6672,
      "inhabit": 6673,
      "instead": 6674,
      "theft": 6675,
      "arbit": 6676,
      "lla": 6677,
      "states": 6678,
      "nomin": 6679,
      "secur": 6680,
      "secre": 6681,
      "itary": 6682,
      "heel": 6683,
      "revel": 6684,
      "belov": 6685,
      "whir": 6686,
      "asunder": 6687,
      "assem": 6688,
      "assemb": 6689,
      "chances": 6690,
      "rode": 6691,
      "fores": 6692,
      "lime": 6693,
      "liard": 6694,
      "entra": 6695,
      "entire": 6696,
      "notorious": 6697,
      "rious": 6698,
      "ribs": 6699,
      "covent": 6700,
      "unlike": 6701,
      "hob": 6702,
      "homage": 6703,
      "lac": 6704,
      "lacks": 6705,
      "butt": 6706,
      "idly": 6707,
      "peach": 6708,
      "feits": 6709,
      "adore": 6710,
      "sums": 6711,
      "prat": 6712,
      "tak": 6713,
      "quant": 6714,
      "morland": 6715,
      "extra": 6716,
      "exact": 6717,
      "moist": 6718,
      "vie": 6719,
      "vion": 6720,
      "permit": 6721,
      "scars": 6722,
      "washed": 6723,
      "enters": 6724,
      "foil": 6725,
      "marquess": 6726,
      "proves": 6727,
      "aggers": 6728,
      "whereupon": 6729,
      "distill": 6730,
      "berries": 6731,
      "spher": 6732,
      "dia": 6733,
      "bail": 6734,
      "serge": 6735,
      "glor": 6736,
      "sweep": 6737,
      "apes": 6738,
      "strings": 6739,
      "monmouth": 6740,
      "urnia": 6741,
      "frantic": 6742,
      "plaint": 6743,
      "opposed": 6744,
      "falcon": 6745,
      "parents": 6746,
      "madly": 6747,
      "closed": 6748,
      "owner": 6749,
      "grate": 6750,
      "trude": 6751,
      "buzz": 6752,
      "trifles": 6753,
      "brawl": 6754,
      "preh": 6755,
      "phurnia": 6756,
      "showers": 6757,
      "undergo": 6758,
      "horror": 6759,
      "crush": 6760,
      "follower": 6761,
      "sennet": 6762,
      "stopped": 6763,
      "patched": 6764,
      "crept": 6765,
      "isons": 6766,
      "gets": 6767,
      "orsino": 6768,
      "ized": 6769,
      "choke": 6770,
      "slack": 6771,
      "humility": 6772,
      "calphurnia": 6773,
      "vault": 6774,
      "gav": 6775,
      "worthily": 6776,
      "trebonius": 6777,
      "princi": 6778,
      "sealed": 6779,
      "doubts": 6780,
      "crystal": 6781,
      "obsequ": 6782,
      "surveyor": 6783,
      "frenchmen": 6784,
      "leader": 6785,
      "lends": 6786,
      "plants": 6787,
      "studied": 6788,
      "bastards": 6789,
      "galled": 6790,
      "vilely": 6791,
      "spurs": 6792,
      "ski": 6793,
      "vowed": 6794,
      "suppos": 6795,
      "baseness": 6796,
      "losses": 6797,
      "westmorland": 6798,
      "mortality": 6799,
      "etern": 6800,
      "cowardly": 6801,
      "springs": 6802,
      "torches": 6803,
      "flatterer": 6804,
      "feeding": 6805,
      "jests": 6806,
      "acquit": 6807,
      "temples": 6808,
      "governed": 6809,
      "derived": 6810,
      "smallest": 6811,
      "motions": 6812,
      "ctious": 6813,
      "florentine": 6814,
      "ghosts": 6815,
      "usurping": 6816,
      "visitation": 6817,
      "intends": 6818,
      "succession": 6819,
      "saturnine": 6820,
      "thursday": 6821,
      "frighted": 6822,
      "thaliard": 6823,
      "triumphant": 6824,
      "mingle": 6825,
      "lamentable": 6826,
      "drives": 6827,
      "betrayed": 6828,
      "executioner": 6829,
      "sauce": 6830,
      "melted": 6831,
      "borrowed": 6832,
      "hatred": 6833,
      "hills": 6834,
      "bigger": 6835,
      "discovered": 6836,
      "withered": 6837,
      "accused": 6838,
      "tokens": 6839,
      "concluded": 6840,
      "imperious": 6841,
      "thorns": 6842,
      "parentage": 6843,
      "neglected": 6844,
      "belongs": 6845,
      "beautiful": 6846,
      "injurious": 6847,
      "traveller": 6848,
      "bulk": 6849,
      "plenty": 6850,
      "latest": 6851,
      "assault": 6852,
      "ordinary": 6853,
      "loathed": 6854,
      "feigned": 6855,
      "threats": 6856,
      "contempl": 6857,
      "dispersed": 6858,
      "christendom": 6859,
      "aedile": 6860,
      "huntsman": 6861,
      "branches": 6862,
      "exploit": 6863,
      "shelter": 6864,
      "thood": 6865,
      "superfluous": 6866,
      "wonders": 6867,
      "oblivion": 6868,
      "drowsy": 6869,
      "ruffian": 6870,
      "eloqu": 6871,
      "rouen": 6872,
      "religion": 6873,
      "compact": 6874,
      "pavilion": 6875,
      "philippi": 6876,
      "egeus": 6877,
      "36": 6878,
      "44": 6879,
      "_l": 6880,
      "bars": 6881,
      "bide": 6882,
      "boured": 6883,
      "cato": 6884,
      "een": 6885,
      "eun": 6886,
      "equ": 6887,
      "fut": 6888,
      "fates": 6889,
      "idol": 6890,
      "mson": 6891,
      "mates": 6892,
      "oil": 6893,
      "pere": 6894,
      "pud": 6895,
      "rs": 6896,
      "sans": 6897,
      "scold": 6898,
      "sanc": 6899,
      "tus": 6900,
      "uate": 6901,
      "’—": 6902,
      "ero": 6903,
      "oudy": 6904,
      "invest": 6905,
      "thest": 6906,
      "envo": 6907,
      "enfranch": 6908,
      "isement": 6909,
      "arrant": 6910,
      "array": 6911,
      "escap": 6912,
      "toys": 6913,
      "habits": 6914,
      "itive": 6915,
      "itali": 6916,
      "heigh": 6917,
      "leag": 6918,
      "lebr": 6919,
      "lease": 6920,
      "recount": 6921,
      "ingly": 6922,
      "bee": 6923,
      "beck": 6924,
      "veil": 6925,
      "rod": 6926,
      "celebr": 6927,
      "lict": 6928,
      "albeit": 6929,
      "utch": 6930,
      "defeat": 6931,
      "ridi": 6932,
      "cod": 6933,
      "unru": 6934,
      "rags": 6935,
      "rabble": 6936,
      "uring": 6937,
      "ample": 6938,
      "idam": 6939,
      "shamed": 6940,
      "adder": 6941,
      "admi": 6942,
      "nell": 6943,
      "fathom": 6944,
      "prate": 6945,
      "confir": 6946,
      "tressed": 6947,
      "quo": 6948,
      "exter": 6949,
      "excus": 6950,
      "size": 6951,
      "motive": 6952,
      "boil": 6953,
      "wny": 6954,
      "vial": 6955,
      "composition": 6956,
      "complaint": 6957,
      "howl": 6958,
      "pertain": 6959,
      "saving": 6960,
      "canop": 6961,
      "fowl": 6962,
      "illy": 6963,
      "selfsame": 6964,
      "dislike": 6965,
      "disput": 6966,
      "disposed": 6967,
      "wayward": 6968,
      "spies": 6969,
      "cicero": 6970,
      "fiends": 6971,
      "gentry": 6972,
      "appar": 6973,
      "gravity": 6974,
      "strat": 6975,
      "strengthen": 6976,
      "warning": 6977,
      "richly": 6978,
      "offender": 6979,
      "acles": 6980,
      "bloods": 6981,
      "parcel": 6982,
      "armies": 6983,
      "trip": 6984,
      "bearer": 6985,
      "mightily": 6986,
      "talents": 6987,
      "casket": 6988,
      "witty": 6989,
      "possi": 6990,
      "purg": 6991,
      "rightful": 6992,
      "nativ": 6993,
      "cloudy": 6994,
      "dram": 6995,
      "resort": 6996,
      "highly": 6997,
      "patron": 6998,
      "fertile": 6999,
      "jade": 7000,
      "confidence": 7001,
      "lawy": 7002,
      "cuts": 7003,
      "childish": 7004,
      "meets": 7005,
      "murders": 7006,
      "homely": 7007,
      "breakfast": 7008,
      "coldly": 7009,
      "watery": 7010,
      "talked": 7011,
      "prompt": 7012,
      "watchman": 7013,
      "footing": 7014,
      "bated": 7015,
      "crimson": 7016,
      "picious": 7017,
      "region": 7018,
      "payment": 7019,
      "prosperity": 7020,
      "licity": 7021,
      "boldness": 7022,
      "locked": 7023,
      "wiser": 7024,
      "reported": 7025,
      "appeared": 7026,
      "throwing": 7027,
      "testimon": 7028,
      "gladly": 7029,
      "cowardice": 7030,
      "culous": 7031,
      "instinct": 7032,
      "hurts": 7033,
      "approved": 7034,
      "fleance": 7035,
      "resolute": 7036,
      "tempts": 7037,
      "laughing": 7038,
      "steals": 7039,
      "receives": 7040,
      "beards": 7041,
      "partial": 7042,
      "bigot": 7043,
      "property": 7044,
      "slanders": 7045,
      "scale": 7046,
      "dwelling": 7047,
      "abhorred": 7048,
      "million": 7049,
      "affords": 7050,
      "instruction": 7051,
      "eastcheap": 7052,
      "swallowed": 7053,
      "finish": 7054,
      "bills": 7055,
      "feathers": 7056,
      "relieve": 7057,
      "distracted": 7058,
      "chatill": 7059,
      "imprisonment": 7060,
      "wrinkles": 7061,
      "determined": 7062,
      "holla": 7063,
      "detested": 7064,
      "oppression": 7065,
      "requires": 7066,
      "warriors": 7067,
      "scourge": 7068,
      "nymphs": 7069,
      "swoon": 7070,
      "courtesan": 7071,
      "malicious": 7072,
      "fantastical": 7073,
      "counsellor": 7074,
      "cudgel": 7075,
      "penitent": 7076,
      "pattern": 7077,
      "beadle": 7078,
      "abominable": 7079,
      "quintus": 7080,
      "coffin": 7081,
      "indirect": 7082,
      "distinguish": 7083,
      "ecst": 7084,
      "chiefly": 7085,
      "colevile": 7086,
      "security": 7087,
      "secrecy": 7088,
      "coventry": 7089,
      "sergeant": 7090,
      "eunuch": 7091,
      "envoi_": 7092,
      "italian": 7093,
      "ridiculous": 7094,
      "unruly": 7095,
      "admired": 7096,
      "apparition": 7097,
      "nativity": 7098,
      "16": 7099,
      "20": 7100,
      "56": 7101,
      "_i": 7102,
      "_alarum": 7103,
      "_draws": 7104,
      "_singing": 7105,
      "aemi": 7106,
      "amain": 7107,
      "bench": 7108,
      "cad": 7109,
      "clit": 7110,
      "dir": 7111,
      "fter": 7112,
      "furious": 7113,
      "gay": 7114,
      "gul": 7115,
      "jump": 7116,
      "lon": 7117,
      "nin": 7118,
      "nig": 7119,
      "nourish": 7120,
      "pig": 7121,
      "sain": 7122,
      "tany": 7123,
      "wan": 7124,
      "’?": 7125,
      "”—": 7126,
      "ini": 7127,
      "inquire": 7128,
      "ensue": 7129,
      "ared": 7130,
      "arras": 7131,
      "attain": 7132,
      "mel": 7133,
      "halt": 7134,
      "secr": 7135,
      "seated": 7136,
      "hecu": 7137,
      "leek": 7138,
      "refle": 7139,
      "requit": 7140,
      "rehearse": 7141,
      "beef": 7142,
      "channe": 7143,
      "forgiven": 7144,
      "using": 7145,
      "ligar": 7146,
      "entre": 7147,
      "deeper": 7148,
      "doves": 7149,
      "rider": 7150,
      "ripen": 7151,
      "mag": 7152,
      "mace": 7153,
      "rable": 7154,
      "raged": 7155,
      "laboured": 7156,
      "thern": 7157,
      "urg": 7158,
      "urous": 7159,
      "willough": 7160,
      "idleness": 7161,
      "feats": 7162,
      "mang": 7163,
      "mansion": 7164,
      "whatsoever": 7165,
      "adver": 7166,
      "neur": 7167,
      "neath": 7168,
      "supre": 7169,
      "arden": 7170,
      "popul": 7171,
      "tables": 7172,
      "consecr": 7173,
      "causes": 7174,
      "shirt": 7175,
      "bos": 7176,
      "goodman": 7177,
      "howling": 7178,
      "peruse": 7179,
      "peradventure": 7180,
      "perceived": 7181,
      "ctures": 7182,
      "whoever": 7183,
      "blemish": 7184,
      "prop": 7185,
      "iles": 7186,
      "spect": 7187,
      "discer": 7188,
      "discovery": 7189,
      "distressed": 7190,
      "dice": 7191,
      "dius": 7192,
      "civious": 7193,
      "fickle": 7194,
      "norway": 7195,
      "miscarry": 7196,
      "apple": 7197,
      "heave": 7198,
      "mercur": 7199,
      "merits": 7200,
      "accompan": 7201,
      "landed": 7202,
      "betro": 7203,
      "_exeunt_": 7204,
      "cloy": 7205,
      "readiness": 7206,
      "privy": 7207,
      "traffi": 7208,
      "iable": 7209,
      "truce": 7210,
      "lively": 7211,
      "worldly": 7212,
      "foolery": 7213,
      "phry": 7214,
      "trod": 7215,
      "underneath": 7216,
      "flute": 7217,
      "hore": 7218,
      "purses": 7219,
      "capital": 7220,
      "charges": 7221,
      "commended": 7222,
      "cures": 7223,
      "rests": 7224,
      "stopp": 7225,
      "eyelids": 7226,
      "gloucestershire": 7227,
      "waist": 7228,
      "carlis": 7229,
      "grieved": 7230,
      "meanest": 7231,
      "striking": 7232,
      "confounds": 7233,
      "praising": 7234,
      "antium": 7235,
      "antique": 7236,
      "husbandry": 7237,
      "ports": 7238,
      "worthies": 7239,
      "worthier": 7240,
      "murderous": 7241,
      "pisa": 7242,
      "treble": 7243,
      "fitted": 7244,
      "belief": 7245,
      "commandment": 7246,
      "clip": 7247,
      "ighthood": 7248,
      "revenges": 7249,
      "mix": 7250,
      "malad": 7251,
      "piety": 7252,
      "personal": 7253,
      "gallants": 7254,
      "wooed": 7255,
      "brim": 7256,
      "occup": 7257,
      "chiefest": 7258,
      "pastime": 7259,
      "eating": 7260,
      "wednes": 7261,
      "flames": 7262,
      "plots": 7263,
      "sports": 7264,
      "speechless": 7265,
      "fraught": 7266,
      "badge": 7267,
      "scarf": 7268,
      "teaching": 7269,
      "fancies": 7270,
      "respected": 7271,
      "polis": 7272,
      "hypo": 7273,
      "famish": 7274,
      "gging": 7275,
      "reigns": 7276,
      "continual": 7277,
      "brittany": 7278,
      "parties": 7279,
      "mutius": 7280,
      "forgotten": 7281,
      "swine": 7282,
      "adrian": 7283,
      "blushes": 7284,
      "churchyard": 7285,
      "victorious": 7286,
      "pirates": 7287,
      "approaches": 7288,
      "sorts": 7289,
      "endured": 7290,
      "heralds": 7291,
      "importun": 7292,
      "piercing": 7293,
      "maidenhead": 7294,
      "naughty": 7295,
      "negligence": 7296,
      "disgraced": 7297,
      "languish": 7298,
      "transform": 7299,
      "picked": 7300,
      "dignities": 7301,
      "stomachs": 7302,
      "napkin": 7303,
      "knighthood": 7304,
      "objects": 7305,
      "furnished": 7306,
      "eager": 7307,
      "errors": 7308,
      "dorcas": 7309,
      "concern": 7310,
      "recovered": 7311,
      "shouts": 7312,
      "admirable": 7313,
      "whitmore": 7314,
      "shrink": 7315,
      "scroll": 7316,
      "conspirator": 7317,
      "moody": 7318,
      "plucks": 7319,
      "wrinkled": 7320,
      "holland": 7321,
      "heavier": 7322,
      "sanctuary": 7323,
      "applaud": 7324,
      "collected": 7325,
      "renew": 7326,
      "discipline": 7327,
      "impediment": 7328,
      "subscribe": 7329,
      "tapster": 7330,
      "pangs": 7331,
      "sympa": 7332,
      "lascivious": 7333,
      "comfortable": 7334,
      "champion": 7335,
      "apprehension": 7336,
      "fantasy": 7337,
      "ravished": 7338,
      "publish": 7339,
      "egyptian": 7340,
      "assembly": 7341,
      "quantity": 7342,
      "stratage": 7343,
      "aemilius": 7344,
      "clitus": 7345,
      "niggard": 7346,
      "hecuba": 7347,
      "ligarius": 7348,
      "willoughby": 7349,
      "mercury": 7350,
      "accompanied": 7351,
      "carlisle": 7352,
      "wednesday": 7353,
      "28": 7354,
      "48": 7355,
      "96": 7356,
      "_strikes": 7357,
      "aine": 7358,
      "avouch": 7359,
      "dition": 7360,
      "dally": 7361,
      "eu": 7362,
      "ethe": 7363,
      "frow": 7364,
      "guts": 7365,
      "link": 7366,
      "lished": 7367,
      "mpt": 7368,
      "mended": 7369,
      "nish": 7370,
      "nick": 7371,
      "rent": 7372,
      "sce": 7373,
      "shop": 7374,
      "tink": 7375,
      "ub": 7376,
      "ually": 7377,
      "udius": 7378,
      "‘“": 7379,
      "’.": 7380,
      "’;": 7381,
      "anchor": 7382,
      "eres": 7383,
      "orator": 7384,
      "enlarge": 7385,
      "ists": 7386,
      "ati": 7387,
      "attor": 7388,
      "llies": 7389,
      "tood": 7390,
      "stare": 7391,
      "stiff": 7392,
      "mete": 7393,
      "noses": 7394,
      "seth": 7395,
      "itiff": 7396,
      "levy": 7397,
      "levied": 7398,
      "retain": 7399,
      "asking": 7400,
      "asham": 7401,
      "chim": 7402,
      "chronic": 7403,
      "chival": 7404,
      "rog": 7405,
      "roast": 7406,
      "roots": 7407,
      "cedar": 7408,
      "myr": 7409,
      "lick": 7410,
      "ligent": 7411,
      "entice": 7412,
      "notable": 7413,
      "detain": 7414,
      "sow": 7415,
      "keley": 7416,
      "covers": 7417,
      "copy": 7418,
      "goest": 7419,
      "uncertain": 7420,
      "unwilling": 7421,
      "hiss": 7422,
      "rais": 7423,
      "hog": 7424,
      "hoar": 7425,
      "lambs": 7426,
      "labours": 7427,
      "versal": 7428,
      "verily": 7429,
      "ordain": 7430,
      "idents": 7431,
      "shaking": 7432,
      "tify": 7433,
      "tickle": 7434,
      "advent": 7435,
      "sul": 7436,
      "poise": 7437,
      "taper": 7438,
      "tabor": 7439,
      "tawny": 7440,
      "cabin": 7441,
      "caitiff": 7442,
      "exton": 7443,
      "upward": 7444,
      "ineth": 7445,
      "compet": 7446,
      "teem": 7447,
      "muff": 7448,
      "outside": 7449,
      "scy": 7450,
      "sage": 7451,
      "foam": 7452,
      "progress": 7453,
      "akes": 7454,
      "greets": 7455,
      "discharged": 7456,
      "discontented": 7457,
      "berkeley": 7458,
      "dido": 7459,
      "fide": 7460,
      "fife": 7461,
      "rowland": 7462,
      "sweethe": 7463,
      "lustre": 7464,
      "string": 7465,
      "strato": 7466,
      "emin": 7467,
      "embass": 7468,
      "breech": 7469,
      "aux": 7470,
      "nighting": 7471,
      "abuses": 7472,
      "frenz": 7473,
      "hearken": 7474,
      "plagues": 7475,
      "parch": 7476,
      "parag": 7477,
      "parish": 7478,
      "truest": 7479,
      "truant": 7480,
      "buff": 7481,
      "cheese": 7482,
      "vocate": 7483,
      "braw": 7484,
      "presum": 7485,
      "blank": 7486,
      "precise": 7487,
      "talks": 7488,
      "lighted": 7489,
      "trot": 7490,
      "insin": 7491,
      "claudius": 7492,
      "begged": 7493,
      "actor": 7494,
      "denial": 7495,
      "kindled": 7496,
      "peaceful": 7497,
      "rescu": 7498,
      "ceres": 7499,
      "bands": 7500,
      "meaner": 7501,
      "lowly": 7502,
      "blaz": 7503,
      "farthest": 7504,
      "suborn": 7505,
      "cush": 7506,
      "nearest": 7507,
      "wonted": 7508,
      "syll": 7509,
      "questions": 7510,
      "thumb": 7511,
      "protect": 7512,
      "doubted": 7513,
      "devilish": 7514,
      "surmis": 7515,
      "surgeon": 7516,
      "generation": 7517,
      "sinful": 7518,
      "breathless": 7519,
      "donalb": 7520,
      "watched": 7521,
      "proudest": 7522,
      "fourscore": 7523,
      "plat": 7524,
      "plough": 7525,
      "airy": 7526,
      "nonny": 7527,
      "gertrude": 7528,
      "pasture": 7529,
      "fasting": 7530,
      "profan": 7531,
      "skil": 7532,
      "wheat": 7533,
      "weaker": 7534,
      "cords": 7535,
      "struction": 7536,
      "baser": 7537,
      "basest": 7538,
      "bowl": 7539,
      "wretches": 7540,
      "balance": 7541,
      "scarlet": 7542,
      "approbation": 7543,
      "mities": 7544,
      "flee": 7545,
      "breasts": 7546,
      "starved": 7547,
      "robbed": 7548,
      "cheerly": 7549,
      "commendations": 7550,
      "swifter": 7551,
      "midst": 7552,
      "influ": 7553,
      "continues": 7554,
      "british": 7555,
      "proofs": 7556,
      "spacious": 7557,
      "temperate": 7558,
      "entertained": 7559,
      "breathes": 7560,
      "judged": 7561,
      "considered": 7562,
      "requests": 7563,
      "smells": 7564,
      "girls": 7565,
      "rarely": 7566,
      "solemnity": 7567,
      "damnation": 7568,
      "philostrate": 7569,
      "transformed": 7570,
      "assume": 7571,
      "descended": 7572,
      "bullcalf": 7573,
      "sticks": 7574,
      "lunatic": 7575,
      "stockings": 7576,
      "admitted": 7577,
      "brandon": 7578,
      "accidents": 7579,
      "afflict": 7580,
      "pearls": 7581,
      "admiration": 7582,
      "assistance": 7583,
      "events": 7584,
      "relief": 7585,
      "simplicity": 7586,
      "barbary": 7587,
      "beguiled": 7588,
      "characters": 7589,
      "incense": 7590,
      "dissembling": 7591,
      "shrill": 7592,
      "crosses": 7593,
      "warrior": 7594,
      "subdued": 7595,
      "posterity": 7596,
      "philosophy": 7597,
      "braggart": 7598,
      "understood": 7599,
      "powder": 7600,
      "recreant": 7601,
      "insolence": 7602,
      "attach": 7603,
      "restraint": 7604,
      "pestilence": 7605,
      "tardy": 7606,
      "tyrannous": 7607,
      "proverb": 7608,
      "abundance": 7609,
      "prevailed": 7610,
      "haughty": 7611,
      "holiday": 7612,
      "principal": 7613,
      "eternity": 7614,
      "future": 7615,
      "perempt": 7616,
      "chatillion": 7617,
      "ecstasy": 7618,
      "saints": 7619,
      "entreats": 7620,
      "advertis": 7621,
      "traffic": 7622,
      "froward": 7623,
      "sweetheart": 7624,
      "embassy": 7625,
      "donalbain": 7626,
      "13": 7627,
      "52": 7628,
      "72": 7629,
      "76": 7630,
      "80": 7631,
      "_throws": 7632,
      "avo": 7633,
      "bbles": 7634,
      "cim": 7635,
      "coffers": 7636,
      "diff": 7637,
      "daggers": 7638,
      "eves": 7639,
      "fen": 7640,
      "fist": 7641,
      "gli": 7642,
      "gur": 7643,
      "iard": 7644,
      "jades": 7645,
      "lous": 7646,
      "nis": 7647,
      "pious": 7648,
      "rr": 7649,
      "rats": 7650,
      "sall": 7651,
      "slu": 7652,
      "sblood": 7653,
      "sunder": 7654,
      "smart": 7655,
      "tullus": 7656,
      "uble": 7657,
      "vag": 7658,
      "waf": 7659,
      "wins": 7660,
      "ythee": 7661,
      "thia": 7662,
      "anks": 7663,
      "thecar": 7664,
      "oration": 7665,
      "ena": 7666,
      "enna": 7667,
      "enrich": 7668,
      "enraged": 7669,
      "isted": 7670,
      "arrows": 7671,
      "llor": 7672,
      "tops": 7673,
      "towers": 7674,
      "stall": 7675,
      "stairs": 7676,
      "mew": 7677,
      "meal": 7678,
      "mede": 7679,
      "meek": 7680,
      "sear": 7681,
      "sele": 7682,
      "hecate": 7683,
      "remote": 7684,
      "remun": 7685,
      "wheres": 7686,
      "wiped": 7687,
      "assail": 7688,
      "ashore": 7689,
      "rote": 7690,
      "edu": 7691,
      "irish": 7692,
      "usage": 7693,
      "lik": 7694,
      "lding": 7695,
      "dex": 7696,
      "deaux": 7697,
      "ghan": 7698,
      "keth": 7699,
      "impart": 7700,
      "iments": 7701,
      "impeach": 7702,
      "unic": 7703,
      "unarm": 7704,
      "unmannerly": 7705,
      "map": 7706,
      "magic": 7707,
      "rapt": 7708,
      "holes": 7709,
      "etc": 7710,
      "shaft": 7711,
      "tiest": 7712,
      "tians": 7713,
      "adise": 7714,
      "adverse": 7715,
      "fact": 7716,
      "factor": 7717,
      "ific": 7718,
      "tern": 7719,
      "concei": 7720,
      "quill": 7721,
      "morton": 7722,
      "exp": 7723,
      "moe": 7724,
      "mole": 7725,
      "ounce": 7726,
      "venet": 7727,
      "follies": 7728,
      "spear": 7729,
      "whereby": 7730,
      "dishonest": 7731,
      "brine": 7732,
      "spain": 7733,
      "dial": 7734,
      "dious": 7735,
      "diction": 7736,
      "ficial": 7737,
      "glut": 7738,
      "brothe": 7739,
      "daylight": 7740,
      "monsters": 7741,
      "angus": 7742,
      "wark": 7743,
      "aband": 7744,
      "abject": 7745,
      "ability": 7746,
      "oppressed": 7747,
      "sweetness": 7748,
      "paradise": 7749,
      "prim": 7750,
      "budge": 7751,
      "cheat": 7752,
      "vocation": 7753,
      "brake": 7754,
      "brazen": 7755,
      "downright": 7756,
      "graced": 7757,
      "flin": 7758,
      "purity": 7759,
      "corpse": 7760,
      "commence": 7761,
      "acted": 7762,
      "clasp": 7763,
      "drag": 7764,
      "draught": 7765,
      "compul": 7766,
      "denies": 7767,
      "kindle": 7768,
      "restrain": 7769,
      "bedchamber": 7770,
      "creation": 7771,
      "steeds": 7772,
      "waits": 7773,
      "messina": 7774,
      "faithfully": 7775,
      "member": 7776,
      "confin": 7777,
      "singular": 7778,
      "murd": 7779,
      "submit": 7780,
      "folks": 7781,
      "cala": 7782,
      "vaul": 7783,
      "goldsmith": 7784,
      "wearied": 7785,
      "salve": 7786,
      "wishing": 7787,
      "centre": 7788,
      "strait": 7789,
      "mbles": 7790,
      "simply": 7791,
      "crafty": 7792,
      "protection": 7793,
      "dale": 7794,
      "commander": 7795,
      "speedily": 7796,
      "chambers": 7797,
      "obst": 7798,
      "harder": 7799,
      "generate": 7800,
      "knell": 7801,
      "volunt": 7802,
      "unclean": 7803,
      "pied": 7804,
      "pigeons": 7805,
      "syracus": 7806,
      "studies": 7807,
      "opens": 7808,
      "gallop": 7809,
      "gallia": 7810,
      "chancellor": 7811,
      "wisest": 7812,
      "appearance": 7813,
      "flaming": 7814,
      "basely": 7815,
      "covered": 7816,
      "tenderness": 7817,
      "interim": 7818,
      "element": 7819,
      "fram": 7820,
      "quired": 7821,
      "nichol": 7822,
      "sprung": 7823,
      "credulous": 7824,
      "flattered": 7825,
      "shepherds": 7826,
      "directed": 7827,
      "fills": 7828,
      "wildly": 7829,
      "proceeded": 7830,
      "reverent": 7831,
      "robb": 7832,
      "poisonous": 7833,
      "witches": 7834,
      "pyrr": 7835,
      "seyton": 7836,
      "receipt": 7837,
      "quietly": 7838,
      "finely": 7839,
      "mutton": 7840,
      "bias": 7841,
      "swan": 7842,
      "cured": 7843,
      "glasses": 7844,
      "opinions": 7845,
      "uttered": 7846,
      "holiness": 7847,
      "catching": 7848,
      "stances": 7849,
      "importune": 7850,
      "expected": 7851,
      "frozen": 7852,
      "drunkard": 7853,
      "offenders": 7854,
      "faints": 7855,
      "triumphs": 7856,
      "whistle": 7857,
      "volumnius": 7858,
      "fishes": 7859,
      "encountered": 7860,
      "wrathful": 7861,
      "amazement": 7862,
      "hiding": 7863,
      "melting": 7864,
      "transgress": 7865,
      "slaughtered": 7866,
      "different": 7867,
      "weighty": 7868,
      "eyne": 7869,
      "twelvemonth": 7870,
      "perfume": 7871,
      "practices": 7872,
      "prophecy": 7873,
      "inclination": 7874,
      "concerning": 7875,
      "streams": 7876,
      "carrion": 7877,
      "merriment": 7878,
      "accusation": 7879,
      "masked": 7880,
      "distraction": 7881,
      "practis": 7882,
      "cepted": 7883,
      "curio": 7884,
      "chiding": 7885,
      "pupil": 7886,
      "heavily": 7887,
      "incest": 7888,
      "dissemble": 7889,
      "inheritance": 7890,
      "starveling": 7891,
      "compell": 7892,
      "scattered": 7893,
      "junction": 7894,
      "defiance": 7895,
      "applause": 7896,
      "muddy": 7897,
      "philosopher": 7898,
      "wreath": 7899,
      "imitate": 7900,
      "impression": 7901,
      "scales": 7902,
      "mustardseed": 7903,
      "compliment": 7904,
      "lazy": 7905,
      "christ": 7906,
      "ingrateful": 7907,
      "covetous": 7908,
      "universal": 7909,
      "conversation": 7910,
      "bawdy": 7911,
      "diadem": 7912,
      "contemplation": 7913,
      "eloquence": 7914,
      "illyria": 7915,
      "testimony": 7916,
      "iniquity": 7917,
      "channel": 7918,
      "mangled": 7919,
      "chivalry": 7920,
      "frenzy": 7921,
      "peremptory": 7922,
      "thecary": 7923,
      "remuner": 7924,
      "nicholas": 7925,
      "pyrrhus": 7926,
      "40": 7927,
      "92": 7928,
      "_sound": 7929,
      "aur": 7930,
      "bbling": 7931,
      "boughs": 7932,
      "dard": 7933,
      "duteous": 7934,
      "fas": 7935,
      "farm": 7936,
      "iences": 7937,
      "jar": 7938,
      "lass": 7939,
      "mits": 7940,
      "pall": 7941,
      "pies": 7942,
      "plate": 7943,
      "pages": 7944,
      "snor": 7945,
      "tough": 7946,
      "wages": 7947,
      "yare": 7948,
      "zwater": 7949,
      "thwart": 7950,
      "ann": 7951,
      "erio": 7952,
      "erping": 7953,
      "insp": 7954,
      "inies": 7955,
      "orph": 7956,
      "endow": 7957,
      "andro": 7958,
      "attire": 7959,
      "stinking": 7960,
      "haut": 7961,
      "severe": 7962,
      "hew": 7963,
      "reform": 7964,
      "inge": 7965,
      "ingen": 7966,
      "inged": 7967,
      "beest": 7968,
      "bevis": 7969,
      "chan": 7970,
      "rooted": 7971,
      "forester": 7972,
      "forged": 7973,
      "usale": 7974,
      "usual": 7975,
      "loins": 7976,
      "demean": 7977,
      "demi": 7978,
      "degenerate": 7979,
      "rian": 7980,
      "ribly": 7981,
      "coy": 7982,
      "cope": 7983,
      "colt": 7984,
      "unch": 7985,
      "ungentle": 7986,
      "unluck": 7987,
      "unfortunate": 7988,
      "mache": 7989,
      "hoof": 7990,
      "button": 7991,
      "urus": 7992,
      "estab": 7993,
      "herb": 7994,
      "herbs": 7995,
      "peck": 7996,
      "neth": 7997,
      "necks": 7998,
      "potion": 7999,
      "prating": 8000,
      "tering": 8001,
      "conge": 8002,
      "moroc": 8003,
      "exquis": 8004,
      "upper": 8005,
      "motle": 8006,
      "boat": 8007,
      "vienna": 8008,
      "comedy": 8009,
      "perplex": 8010,
      "weller": 8011,
      "indent": 8012,
      "saith": 8013,
      "canon": 8014,
      "footed": 8015,
      "martial": 8016,
      "agent": 8017,
      "agate": 8018,
      "seemeth": 8019,
      "spell": 8020,
      "wherewith": 8021,
      "disloyal": 8022,
      "pled": 8023,
      "spill": 8024,
      "bable": 8025,
      "misfortune": 8026,
      "lulla": 8027,
      "broils": 8028,
      "handle": 8029,
      "hic": 8030,
      "nable": 8031,
      "empt": 8032,
      "augment": 8033,
      "sonnet": 8034,
      "angled": 8035,
      "greatly": 8036,
      "counts": 8037,
      "warn": 8038,
      "fulness": 8039,
      "parle": 8040,
      "guides": 8041,
      "pricks": 8042,
      "trace": 8043,
      "ornaments": 8044,
      "grin": 8045,
      "buys": 8046,
      "barge": 8047,
      "cases": 8048,
      "phœ": 8049,
      "lightly": 8050,
      "shower": 8051,
      "purposed": 8052,
      "purchased": 8053,
      "clapped": 8054,
      "clamorous": 8055,
      "betters": 8056,
      "jeweller": 8057,
      "dearth": 8058,
      "begone": 8059,
      "begging": 8060,
      "shipped": 8061,
      "crutch": 8062,
      "lane": 8063,
      "lantern": 8064,
      "bedfellow": 8065,
      "staying": 8066,
      "crew": 8067,
      "justify": 8068,
      "justices": 8069,
      "villany": 8070,
      "sentine": 8071,
      "valued": 8072,
      "getting": 8073,
      "throned": 8074,
      "blade": 8075,
      "confessed": 8076,
      "conflict": 8077,
      "overcome": 8078,
      "macmorris": 8079,
      "murmur": 8080,
      "subdue": 8081,
      "chains": 8082,
      "chaff": 8083,
      "camps": 8084,
      "suns": 8085,
      "salut": 8086,
      "salerio": 8087,
      "throughly": 8088,
      "spoils": 8089,
      "fitting": 8090,
      "fitzwater": 8091,
      "believed": 8092,
      "surprise": 8093,
      "helenus": 8094,
      "hardy": 8095,
      "humorous": 8096,
      "generous": 8097,
      "generally": 8098,
      "volsce": 8099,
      "penalty": 8100,
      "bourbon": 8101,
      "reveng": 8102,
      "bordeaux": 8103,
      "promp": 8104,
      "plum": 8105,
      "pilot": 8106,
      "wounding": 8107,
      "mirror": 8108,
      "regal": 8109,
      "doubtless": 8110,
      "itories": 8111,
      "opening": 8112,
      "skies": 8113,
      "wedlock": 8114,
      "costly": 8115,
      "pointing": 8116,
      "interchange": 8117,
      "englishman": 8118,
      "framed": 8119,
      "testament": 8120,
      "suffering": 8121,
      "flows": 8122,
      "creditors": 8123,
      "torments": 8124,
      "entreaty": 8125,
      "entreated": 8126,
      "flatterers": 8127,
      "walked": 8128,
      "fleur": 8129,
      "posts": 8130,
      "wilder": 8131,
      "stark": 8132,
      "bisho": 8133,
      "robber": 8134,
      "famine": 8135,
      "widows": 8136,
      "ostent": 8137,
      "seasons": 8138,
      "measures": 8139,
      "sixteen": 8140,
      "sixpence": 8141,
      "midwife": 8142,
      "secretly": 8143,
      "servingmen": 8144,
      "provoked": 8145,
      "rusty": 8146,
      "vainly": 8147,
      "debtor": 8148,
      "hunter": 8149,
      "alogue": 8150,
      "beggary": 8151,
      "bonnet": 8152,
      "pirate": 8153,
      "courageous": 8154,
      "images": 8155,
      "amaze": 8156,
      "dungh": 8157,
      "necessities": 8158,
      "faintly": 8159,
      "hidden": 8160,
      "revolted": 8161,
      "examine": 8162,
      "weighs": 8163,
      "tumult": 8164,
      "pleading": 8165,
      "decree": 8166,
      "exceeds": 8167,
      "buckle": 8168,
      "phoebus": 8169,
      "files": 8170,
      "affects": 8171,
      "journ": 8172,
      "marty": 8173,
      "perilous": 8174,
      "dishes": 8175,
      "confounded": 8176,
      "leaps": 8177,
      "lodg": 8178,
      "contracted": 8179,
      "inclined": 8180,
      "strangeness": 8181,
      "altered": 8182,
      "clamours": 8183,
      "blasted": 8184,
      "pilgrim": 8185,
      "wrestling": 8186,
      "bags": 8187,
      "arrested": 8188,
      "cepts": 8189,
      "slipper": 8190,
      "yesternight": 8191,
      "wealthy": 8192,
      "bankrupt": 8193,
      "convert": 8194,
      "tyrants": 8195,
      "latin": 8196,
      "contains": 8197,
      "corporate": 8198,
      "frailty": 8199,
      "cobweb": 8200,
      "cozened": 8201,
      "compounded": 8202,
      "jerkin": 8203,
      "jerusale": 8204,
      "battery": 8205,
      "trencher": 8206,
      "decrees": 8207,
      "appointment": 8208,
      "vanquish": 8209,
      "however": 8210,
      "vaughan": 8211,
      "suffers": 8212,
      "sheathe": 8213,
      "moderate": 8214,
      "transported": 8215,
      "gossip": 8216,
      "cottage": 8217,
      "territories": 8218,
      "upbraid": 8219,
      "ruthless": 8220,
      "spectacle": 8221,
      "ascend": 8222,
      "survive": 8223,
      "sepulchre": 8224,
      "glories": 8225,
      "grateful": 8226,
      "equally": 8227,
      "leagues": 8228,
      "sympathy": 8229,
      "sulph": 8230,
      "nightingale": 8231,
      "paragon": 8232,
      "syllable": 8233,
      "skilful": 8234,
      "influence": 8235,
      "avoided": 8236,
      "cimber": 8237,
      "whereso": 8238,
      "brothel": 8239,
      "flinty": 8240,
      "calais": 8241,
      "voluntary": 8242,
      "remuneration": 8243,
      "dardan": 8244,
      "erpingham": 8245,
      "andromache": 8246,
      "morocco": 8247,
      "exquisite": 8248,
      "motley": 8249,
      "jerusalem": 8250,
      ".,": 8251,
      "60": 8252,
      "88": 8253,
      "_un": 8254,
      "_et": 8255,
      "_coming": 8256,
      "_trumpets": 8257,
      "_drinks": 8258,
      "_stabs": 8259,
      "ae": 8260,
      "aus": 8261,
      "aut": 8262,
      "awak": 8263,
      "bath": 8264,
      "blu": 8265,
      "bates": 8266,
      "dul": 8267,
      "dances": 8268,
      "dirt": 8269,
      "eled": 8270,
      "equi": 8271,
      "eased": 8272,
      "gla": 8273,
      "gout": 8274,
      "gany": 8275,
      "gore": 8276,
      "hits": 8277,
      "ipho": 8278,
      "jig": 8279,
      "james": 8280,
      "lengthen": 8281,
      "mp": 8282,
      "nan": 8283,
      "nour": 8284,
      "nance": 8285,
      "nic": 8286,
      "oper": 8287,
      "rang": 8288,
      "sne": 8289,
      "sna": 8290,
      "snail": 8291,
      "ture": 8292,
      "tling": 8293,
      "treads": 8294,
      "ucus": 8295,
      "vat": 8296,
      "wester": 8297,
      "whelp": 8298,
      "zes": 8299,
      "ousies": 8300,
      "outrun": 8301,
      "inches": 8302,
      "inconstant": 8303,
      "infancy": 8304,
      "orb": 8305,
      "istr": 8306,
      "argues": 8307,
      "arrog": 8308,
      "atory": 8309,
      "stings": 8310,
      "stanti": 8311,
      "melun": 8312,
      "hay": 8313,
      "itim": 8314,
      "leth": 8315,
      "legate": 8316,
      "revell": 8317,
      "repetition": 8318,
      "bees": 8319,
      "beet": 8320,
      "bellow": 8321,
      "becoming": 8322,
      "beads": 8323,
      "chers": 8324,
      "chides": 8325,
      "roll": 8326,
      "rolled": 8327,
      "forf": 8328,
      "forso": 8329,
      "forswore": 8330,
      "iris": 8331,
      "irons": 8332,
      "usher": 8333,
      "ldron": 8334,
      "lots": 8335,
      "loses": 8336,
      "dete": 8337,
      "deipho": 8338,
      "doc": 8339,
      "doe": 8340,
      "imput": 8341,
      "impl": 8342,
      "goth": 8343,
      "unfit": 8344,
      "unlawful": 8345,
      "uncles": 8346,
      "radi": 8347,
      "hoop": 8348,
      "butts": 8349,
      "verity": 8350,
      "versy": 8351,
      "amoun": 8352,
      "pease": 8353,
      "geese": 8354,
      "ading": 8355,
      "adorn": 8356,
      "fable": 8357,
      "facul": 8358,
      "ifies": 8359,
      "proffer": 8360,
      "taff": 8361,
      "tapers": 8362,
      "endur": 8363,
      "endless": 8364,
      "cony": 8365,
      "constr": 8366,
      "conject": 8367,
      "trash": 8368,
      "exhi": 8369,
      "boister": 8370,
      "shear": 8371,
      "whips": 8372,
      "vigour": 8373,
      "compos": 8374,
      "perjur": 8375,
      "sale": 8376,
      "probable": 8377,
      "ager": 8378,
      "gib": 8379,
      "duck": 8380,
      "dissen": 8381,
      "dispense": 8382,
      "dispatched": 8383,
      "plea": 8384,
      "sphere": 8385,
      "spied": 8386,
      "spider": 8387,
      "diligence": 8388,
      "northern": 8389,
      "servile": 8390,
      "brood": 8391,
      "speaker": 8392,
      "jolly": 8393,
      "juice": 8394,
      "brew": 8395,
      "quel": 8396,
      "elsin": 8397,
      "wary": 8398,
      "hearers": 8399,
      "plac": 8400,
      "active": 8401,
      "accommod": 8402,
      "hammer": 8403,
      "gull": 8404,
      "clos": 8405,
      "earls": 8406,
      "courtiers": 8407,
      "grudge": 8408,
      "bullen": 8409,
      "cheth": 8410,
      "cleave": 8411,
      "voc": 8412,
      "barr": 8413,
      "barber": 8414,
      "timandra": 8415,
      "petti": 8416,
      "preposter": 8417,
      "ully": 8418,
      "witted": 8419,
      "engine": 8420,
      "core": 8421,
      "palate": 8422,
      "paltry": 8423,
      "actors": 8424,
      "clout": 8425,
      "bures": 8426,
      "waxen": 8427,
      "jaws": 8428,
      "carp": 8429,
      "carve": 8430,
      "harfleur": 8431,
      "choo": 8432,
      "strip": 8433,
      "strives": 8434,
      "blaze": 8435,
      "overthrown": 8436,
      "needle": 8437,
      "needless": 8438,
      "submission": 8439,
      "winking": 8440,
      "happen": 8441,
      "minstre": 8442,
      "marrying": 8443,
      "gape": 8444,
      "stately": 8445,
      "painful": 8446,
      "quicken": 8447,
      "spots": 8448,
      "contention": 8449,
      "treat": 8450,
      "ighed": 8451,
      "fitter": 8452,
      "believ": 8453,
      "sending": 8454,
      "daunt": 8455,
      "surly": 8456,
      "formal": 8457,
      "bites": 8458,
      "biting": 8459,
      "horsemen": 8460,
      "freeze": 8461,
      "volume": 8462,
      "proudly": 8463,
      "saddle": 8464,
      "trusted": 8465,
      "watching": 8466,
      "watchful": 8467,
      "pile": 8468,
      "plainness": 8469,
      "dames": 8470,
      "damnable": 8471,
      "dreaming": 8472,
      "lication": 8473,
      "dined": 8474,
      "basset": 8475,
      "evidence": 8476,
      "claims": 8477,
      "scorned": 8478,
      "scornful": 8479,
      "mockery": 8480,
      "entreaties": 8481,
      "passionate": 8482,
      "ethio": 8483,
      "filling": 8484,
      "feasting": 8485,
      "sighing": 8486,
      "hyper": 8487,
      "horner": 8488,
      "ewes": 8489,
      "conception": 8490,
      "turtle": 8491,
      "george_": 8492,
      "infants": 8493,
      "britons": 8494,
      "chooseth": 8495,
      "cherry": 8496,
      "seals": 8497,
      "blowing": 8498,
      "rascally": 8499,
      "temperance": 8500,
      "gripe": 8501,
      "snuff": 8502,
      "planet": 8503,
      "jealousies": 8504,
      "devout": 8505,
      "bitterness": 8506,
      "usurer": 8507,
      "usurper": 8508,
      "matched": 8509,
      "visited": 8510,
      "riddle": 8511,
      "winters": 8512,
      "wickedness": 8513,
      "arguments": 8514,
      "punished": 8515,
      "allowance": 8516,
      "knives": 8517,
      "poetry": 8518,
      "lamenting": 8519,
      "lamentation": 8520,
      "examples": 8521,
      "reputed": 8522,
      "doomsday": 8523,
      "particulars": 8524,
      "floods": 8525,
      "seized": 8526,
      "expressly": 8527,
      "script": 8528,
      "consume": 8529,
      "circumstances": 8530,
      "apothecary": 8531,
      "crop": 8532,
      "louder": 8533,
      "descends": 8534,
      "pillars": 8535,
      "sequent": 8536,
      "esteemed": 8537,
      "dimin": 8538,
      "eagles": 8539,
      "remainder": 8540,
      "humanity": 8541,
      "vexation": 8542,
      "incline": 8543,
      "controversy": 8544,
      "rambures": 8545,
      "trojans": 8546,
      "zzled": 8547,
      "statutes": 8548,
      "preferment": 8549,
      "creeping": 8550,
      "rhymes": 8551,
      "stretched": 8552,
      "repeal": 8553,
      "rebellious": 8554,
      "tasted": 8555,
      "pursued": 8556,
      "blasts": 8557,
      "volscian": 8558,
      "conspiracy": 8559,
      "marketplace": 8560,
      "planted": 8561,
      "begotten": 8562,
      "arrived": 8563,
      "capacity": 8564,
      "achieved": 8565,
      "staves": 8566,
      "correct": 8567,
      "puppet": 8568,
      "bruised": 8569,
      "plenteous": 8570,
      "designs": 8571,
      "lamp": 8572,
      "contending": 8573,
      "compassed": 8574,
      "advantages": 8575,
      "adversaries": 8576,
      "disperse": 8577,
      "hawk": 8578,
      "lurk": 8579,
      "rarest": 8580,
      "vapour": 8581,
      "vapours": 8582,
      "gaping": 8583,
      "revive": 8584,
      "vanquished": 8585,
      "girdle": 8586,
      "temporal": 8587,
      "indignation": 8588,
      "drugs": 8589,
      "thrall": 8590,
      "beseeming": 8591,
      "drooping": 8592,
      "arragon": 8593,
      "puissant": 8594,
      "ensuing": 8595,
      "melodious": 8596,
      "provokes": 8597,
      "globe": 8598,
      "emulation": 8599,
      "contagious": 8600,
      "cauldron": 8601,
      "exception": 8602,
      "desolation": 8603,
      "besiege": 8604,
      "substitute": 8605,
      "entrails": 8606,
      "lackey": 8607,
      "spheres": 8608,
      "lawyer": 8609,
      "gulf": 8610,
      "discern": 8611,
      "malady": 8612,
      "tinker": 8613,
      "attorney": 8614,
      "chimney": 8615,
      "blazon": 8616,
      "platform": 8617,
      "seleucus": 8618,
      "glutton": 8619,
      "hautboys": 8620,
      "bishops": 8621,
      "ganymede": 8622,
      "snake": 8623,
      "stantial": 8624,
      "forsook": 8625,
      "deiphobus": 8626,
      "peaseblossom": 8627,
      "elsinore": 8628,
      "32": 8629,
      "_la": 8630,
      "_takes": 8631,
      "aber": 8632,
      "apolis": 8633,
      "bil": 8634,
      "bier": 8635,
      "bash": 8636,
      "coffer": 8637,
      "dwar": 8638,
      "daff": 8639,
      "dore": 8640,
      "darts": 8641,
      "ecli": 8642,
      "fry": 8643,
      "flaw": 8644,
      "gas": 8645,
      "gil": 8646,
      "ggling": 8647,
      "ici": 8648,
      "kers": 8649,
      "kites": 8650,
      "kitch": 8651,
      "lers": 8652,
      "mou": 8653,
      "mare": 8654,
      "mber": 8655,
      "nets": 8656,
      "nations": 8657,
      "oy": 8658,
      "pless": 8659,
      "pins": 8660,
      "rite": 8661,
      "sque": 8662,
      "smi": 8663,
      "slips": 8664,
      "tunes": 8665,
      "whelm": 8666,
      "“’": 8667,
      "”!": 8668,
      "thunders": 8669,
      "anew": 8670,
      "injustice": 8671,
      "inside": 8672,
      "incorporate": 8673,
      "envir": 8674,
      "is_": 8675,
      "isid": 8676,
      "isting": 8677,
      "arrow": 8678,
      "onna": 8679,
      "atone": 8680,
      "attaint": 8681,
      "topher": 8682,
      "stony": 8683,
      "mellow": 8684,
      "hag": 8685,
      "havoc": 8686,
      "sedu": 8687,
      "sevent": 8688,
      "seig": 8689,
      "seats": 8690,
      "seeds": 8691,
      "sequel": 8692,
      "leas": 8693,
      "refer": 8694,
      "relate": 8695,
      "redem": 8696,
      "rewards": 8697,
      "retired": 8698,
      "recovery": 8699,
      "betake": 8700,
      "bewr": 8701,
      "befits": 8702,
      "betide": 8703,
      "wight": 8704,
      "vels": 8705,
      "aspir": 8706,
      "cels": 8707,
      "edict": 8708,
      "weighed": 8709,
      "depose": 8710,
      "withhold": 8711,
      "soar": 8712,
      "sola": 8713,
      "dotes": 8714,
      "domain": 8715,
      "dotage": 8716,
      "rig": 8717,
      "rides": 8718,
      "riding": 8719,
      "impose": 8720,
      "imposition": 8721,
      "cow": 8722,
      "coach": 8723,
      "coals": 8724,
      "gomer": 8725,
      "gobl": 8726,
      "unborn": 8727,
      "unquiet": 8728,
      "unwholesome": 8729,
      "raiment": 8730,
      "ete": 8731,
      "urging": 8732,
      "herne": 8733,
      "amour": 8734,
      "odours": 8735,
      "odious": 8736,
      "tip": 8737,
      "tigers": 8738,
      "whatever": 8739,
      "gear": 8740,
      "advocate": 8741,
      "factious": 8742,
      "pry": 8743,
      "pronius": 8744,
      "prero": 8745,
      "pranks": 8746,
      "tack": 8747,
      "taurus": 8748,
      "tered": 8749,
      "consp": 8750,
      "concord": 8751,
      "conceived": 8752,
      "construction": 8753,
      "quers": 8754,
      "caves": 8755,
      "shrun": 8756,
      "morsel": 8757,
      "exits": 8758,
      "bode": 8759,
      "bowed": 8760,
      "shell": 8761,
      "wness": 8762,
      "whipping": 8763,
      "vicious": 8764,
      "persever": 8765,
      "perdition": 8766,
      "whoe": 8767,
      "wasp": 8768,
      "venny": 8769,
      "heretic": 8770,
      "worships": 8771,
      "propose": 8772,
      "gies": 8773,
      "greasy": 8774,
      "maybe": 8775,
      "dispraise": 8776,
      "packet": 8777,
      "derive": 8778,
      "dercet": 8779,
      "serp": 8780,
      "mispr": 8781,
      "missed": 8782,
      "misled": 8783,
      "mistaking": 8784,
      "miscarried": 8785,
      "gentler": 8786,
      "yeoman": 8787,
      "hearty": 8788,
      "navy": 8789,
      "joc": 8790,
      "audit": 8791,
      "anyone": 8792,
      "accompany": 8793,
      "wrench": 8794,
      "parall": 8795,
      "asses": 8796,
      "madmen": 8797,
      "madame": 8798,
      "madonna": 8799,
      "gued": 8800,
      "travail": 8801,
      "antonius": 8802,
      "grind": 8803,
      "fearfully": 8804,
      "ominous": 8805,
      "bust": 8806,
      "cheon": 8807,
      "chequer": 8808,
      "reech": 8809,
      "garlands": 8810,
      "ruff": 8811,
      "tries": 8812,
      "tribe": 8813,
      "tripping": 8814,
      "headstrong": 8815,
      "braver": 8816,
      "presage": 8817,
      "blister": 8818,
      "preach": 8819,
      "predomin": 8820,
      "tenour": 8821,
      "fooling": 8822,
      "phant": 8823,
      "engag": 8824,
      "ptuous": 8825,
      "drench": 8826,
      "capon": 8827,
      "charmed": 8828,
      "chariot": 8829,
      "caused": 8830,
      "bane": 8831,
      "sorcer": 8832,
      "dieu": 8833,
      "sleeves": 8834,
      "stealth": 8835,
      "valu": 8836,
      "answering": 8837,
      "pageant": 8838,
      "elsewhere": 8839,
      "striving": 8840,
      "members": 8841,
      "confines": 8842,
      "backed": 8843,
      "boding": 8844,
      "overdone": 8845,
      "hopeless": 8846,
      "hopeful": 8847,
      "mines": 8848,
      "chapel": 8849,
      "sleepy": 8850,
      "calend": 8851,
      "calamity": 8852,
      "belch": 8853,
      "gavenny": 8854,
      "sounding": 8855,
      "truths": 8856,
      "rememb": 8857,
      "centaur": 8858,
      "livers": 8859,
      "signal": 8860,
      "commanding": 8861,
      "observed": 8862,
      "surge": 8863,
      "sinon": 8864,
      "pens": 8865,
      "penet": 8866,
      "tolf": 8867,
      "plun": 8868,
      "commonweal": 8869,
      "pictures": 8870,
      "boundless": 8871,
      "register": 8872,
      "abode": 8873,
      "paying": 8874,
      "dropp": 8875,
      "grounds": 8876,
      "alehouse": 8877,
      "delivers": 8878,
      "deliverance": 8879,
      "suited": 8880,
      "wanted": 8881,
      "pretence": 8882,
      "prettiest": 8883,
      "wheels": 8884,
      "interpre": 8885,
      "interrup": 8886,
      "phile": 8887,
      "feels": 8888,
      "confessor": 8889,
      "sprite": 8890,
      "hurl": 8891,
      "shepherdess": 8892,
      "replies": 8893,
      "wildness": 8894,
      "hymn": 8895,
      "robs": 8896,
      "witnesses": 8897,
      "adding": 8898,
      "bondman": 8899,
      "family": 8900,
      "stains": 8901,
      "poisoned": 8902,
      "fresher": 8903,
      "cheerfully": 8904,
      "harmful": 8905,
      "gratis": 8906,
      "forestall": 8907,
      "concealed": 8908,
      "secretary": 8909,
      "healthful": 8910,
      "birnam": 8911,
      "roundly": 8912,
      "stories": 8913,
      "departed": 8914,
      "tearsheet": 8915,
      "ginger": 8916,
      "beggarly": 8917,
      "sempronius": 8918,
      "utterly": 8919,
      "utterance": 8920,
      "cater": 8921,
      "virgins": 8922,
      "demanded": 8923,
      "wretchedness": 8924,
      "publicly": 8925,
      "scald": 8926,
      "imports": 8927,
      "montgomer": 8928,
      "frosty": 8929,
      "companies": 8930,
      "clubs": 8931,
      "seventh": 8932,
      "merchants": 8933,
      "offending": 8934,
      "humbled": 8935,
      "ditch": 8936,
      "sparrow": 8937,
      "sparks": 8938,
      "fondly": 8939,
      "repute": 8940,
      "philomel": 8941,
      "proclaims": 8942,
      "swells": 8943,
      "scription": 8944,
      "millions": 8945,
      "conveyed": 8946,
      "plotted": 8947,
      "filth": 8948,
      "pulse": 8949,
      "profitable": 8950,
      "frets": 8951,
      "petitioner": 8952,
      "grooms": 8953,
      "pentapolis": 8954,
      "northampton": 8955,
      "preserved": 8956,
      "conceited": 8957,
      "royally": 8958,
      "extremest": 8959,
      "suspected": 8960,
      "deceased": 8961,
      "rashness": 8962,
      "lodged": 8963,
      "sweating": 8964,
      "groaning": 8965,
      "accordingly": 8966,
      "delays": 8967,
      "passages": 8968,
      "_sings_": 8969,
      "invited": 8970,
      "controlled": 8971,
      "building": 8972,
      "gartered": 8973,
      "slightly": 8974,
      "zzle": 8975,
      "admittance": 8976,
      "sicilius": 8977,
      "pursuiv": 8978,
      "conspirators": 8979,
      "complaints": 8980,
      "distract": 8981,
      "practised": 8982,
      "acceptance": 8983,
      "rejoic": 8984,
      "shillings": 8985,
      "breadth": 8986,
      "observation": 8987,
      "shrewdly": 8988,
      "imprisoned": 8989,
      "reveal": 8990,
      "choleric": 8991,
      "increas": 8992,
      "ordinance": 8993,
      "thankfulness": 8994,
      "crossed": 8995,
      "threes": 8996,
      "succeeding": 8997,
      "impudent": 8998,
      "reserve": 8999,
      "suggestion": 9000,
      "divinity": 9001,
      "courtesies": 9002,
      "frankly": 9003,
      "resemble": 9004,
      "inferior": 9005,
      "riotous": 9006,
      "dissolve": 9007,
      "embracing": 9008,
      "confederates": 9009,
      "modern": 9010,
      "gorgeous": 9011,
      "issues": 9012,
      "arraign": 9013,
      "distinct": 9014,
      "distinction": 9015,
      "puissance": 9016,
      "continuance": 9017,
      "imaginary": 9018,
      "stamped": 9019,
      "depends": 9020,
      "ceremonies": 9021,
      "reconcile": 9022,
      "tartar": 9023,
      "insulting": 9024,
      "mariners": 9025,
      "accomplish": 9026,
      "whirl": 9027,
      "assembled": 9028,
      "sanctified": 9029,
      "confirmed": 9030,
      "canopy": 9031,
      "betrothed": 9032,
      "occupation": 9033,
      "stratagem": 9034,
      "europe": 9035,
      "muffled": 9036,
      "fidele": 9037,
      "rescued": 9038,
      "fleece": 9039,
      "education": 9040,
      "venetian": 9041,
      "compulsion": 9042,
      "fastolf": 9043,
      "ingenious": 9044,
      "phœbus": 9045,
      "dunghill": 9046,
      "western": 9047,
      "itimate": 9048,
      "forfend": 9049,
      "construe": 9050,
      "boisterous": 9051,
      "dissension": 9052,
      "abergavenny": 9053,
      "mouthed": 9054,
      "isidore": 9055,
      "seigneur": 9056,
      "redemption": 9057,
      "bewray": 9058,
      "prerog": 9059,
      "shrunk": 9060,
      "dercetus": 9061,
      "montgomery": 9062,
      "!)": 9063,
      ";”": 9064,
      "_all": 9065,
      "_drum": 9066,
      "_going": 9067,
      "_whispers": 9068,
      "_hic": 9069,
      "az": 9070,
      "awn": 9071,
      "abed": 9072,
      "bout": 9073,
      "bak": 9074,
      "cis": 9075,
      "cats": 9076,
      "dil": 9077,
      "dles": 9078,
      "dane": 9079,
      "eith": 9080,
      "eze": 9081,
      "fu": 9082,
      "fes": 9083,
      "fum": 9084,
      "gins": 9085,
      "gments": 9086,
      "games": 9087,
      "glean": 9088,
      "glim": 9089,
      "hest": 9090,
      "hart": 9091,
      "igent": 9092,
      "jet": 9093,
      "kick": 9094,
      "lang": 9095,
      "oly": 9096,
      "pag": 9097,
      "pith": 9098,
      "pond": 9099,
      "soften": 9100,
      "scep": 9101,
      "t_": 9102,
      "tan": 9103,
      "tir": 9104,
      "tant": 9105,
      "testy": 9106,
      "tires": 9107,
      "ura": 9108,
      "vit": 9109,
      "vary": 9110,
      "whale": 9111,
      "wrote": 9112,
      "yards": 9113,
      "yawn": 9114,
      "zing": 9115,
      "oub": 9116,
      "inve": 9117,
      "incertain": 9118,
      "inclu": 9119,
      "orus": 9120,
      "ortive": 9121,
      "enri": 9122,
      "enched": 9123,
      "enquire": 9124,
      "ism": 9125,
      "argo": 9126,
      "aright": 9127,
      "arab": 9128,
      "ontory": 9129,
      "ands": 9130,
      "atom": 9131,
      "toast": 9132,
      "toads": 9133,
      "stry": 9134,
      "stem": 9135,
      "stable": 9136,
      "mechan": 9137,
      "nostri": 9138,
      "heth": 9139,
      "lecher": 9140,
      "repri": 9141,
      "refresh": 9142,
      "repreh": 9143,
      "vehe": 9144,
      "asphe": 9145,
      "chick": 9146,
      "choked": 9147,
      "forer": 9148,
      "forres": 9149,
      "forete": 9150,
      "ushed": 9151,
      "liars": 9152,
      "limed": 9153,
      "lob": 9154,
      "log": 9155,
      "defe": 9156,
      "deity": 9157,
      "deject": 9158,
      "sop": 9159,
      "sot": 9160,
      "solace": 9161,
      "sojourn": 9162,
      "doit": 9163,
      "rius": 9164,
      "rigour": 9165,
      "cog": 9166,
      "cocks": 9167,
      "goats": 9168,
      "unseason": 9169,
      "unjustly": 9170,
      "unhallowed": 9171,
      "maim": 9172,
      "hoo": 9173,
      "hoard": 9174,
      "hovel": 9175,
      "lawn": 9176,
      "laud": 9177,
      "lacking": 9178,
      "estic": 9179,
      "vert": 9180,
      "vering": 9181,
      "hered": 9182,
      "herod": 9183,
      "herds": 9184,
      "ambush": 9185,
      "orders": 9186,
      "idiot": 9187,
      "shak": 9188,
      "tiber": 9189,
      "pecu": 9190,
      "geoff": 9191,
      "admire": 9192,
      "fails": 9193,
      "ifer": 9194,
      "ifully": 9195,
      "taker": 9196,
      "convent": 9197,
      "conjunction": 9198,
      "cable": 9199,
      "mort": 9200,
      "exten": 9201,
      "expi": 9202,
      "expressed": 9203,
      "exempt": 9204,
      "sighed": 9205,
      "moans": 9206,
      "moons": 9207,
      "bower": 9208,
      "vict": 9209,
      "therewithal": 9210,
      "tew": 9211,
      "howsoever": 9212,
      "indis": 9213,
      "outlaws": 9214,
      "scra": 9215,
      "salic": 9216,
      "vener": 9217,
      "foster": 9218,
      "foils": 9219,
      "marr": 9220,
      "marullus": 9221,
      "progen": 9222,
      "provision": 9223,
      "ilis": 9224,
      "illu": 9225,
      "gia": 9226,
      "giously": 9227,
      "owen": 9228,
      "dissu": 9229,
      "display": 9230,
      "discard": 9231,
      "ured": 9232,
      "brat": 9233,
      "spin": 9234,
      "sped": 9235,
      "cible": 9236,
      "glit": 9237,
      "mist": 9238,
      "missing": 9239,
      "mistaken": 9240,
      "broach": 9241,
      "broached": 9242,
      "gram": 9243,
      "grapes": 9244,
      "grapple": 9245,
      "thinkest": 9246,
      "timeless": 9247,
      "embas": 9248,
      "auda": 9249,
      "quell": 9250,
      "wares": 9251,
      "mermaid": 9252,
      "abound": 9253,
      "abbot": 9254,
      "abram": 9255,
      "offends": 9256,
      "hasten": 9257,
      "hastily": 9258,
      "aces": 9259,
      "opposition": 9260,
      "menteith": 9261,
      "parcels": 9262,
      "prayed": 9263,
      "tragic": 9264,
      "courser": 9265,
      "courts": 9266,
      "fortnight": 9267,
      "tends": 9268,
      "cleft": 9269,
      "votre": 9270,
      "rubs": 9271,
      "timorous": 9272,
      "blasphe": 9273,
      "prelate": 9274,
      "precepts": 9275,
      "liable": 9276,
      "mightier": 9277,
      "tenth": 9278,
      "tenor": 9279,
      "engaged": 9280,
      "intoler": 9281,
      "posing": 9282,
      "welcomes": 9283,
      "communic": 9284,
      "curt": 9285,
      "shipp": 9286,
      "denny": 9287,
      "afterward": 9288,
      "lances": 9289,
      "kinds": 9290,
      "residence": 9291,
      "banners": 9292,
      "eyeballs": 9293,
[...]
